{
  "version": "1.0",
  "truncation": null,
  "padding": null,
  "added_tokens": [
    {
      "id": 0,
      "content": "[PAD",
      "single_word": false,
      "lstrip": false,
      "rstrip": false,
      "normalized": false,
      "special": true
    },
    {
      "id": 1,
      "content": "[UNK]",
      "single_word": false,
      "lstrip": false,
      "rstrip": false,
      "normalized": false,
      "special": true
    }
  ],
  "normalizer": null,
  "pre_tokenizer": {
    "type": "Whitespace"
  },
  "post_processor": null,
  "decoder": null,
  "model": {
    "type": "BPE",
    "dropout": null,
    "unk_token": "[UNK]",
    "continuing_subword_prefix": null,
    "end_of_word_suffix": null,
    "fuse_unk": false,
    "byte_fallback": false,
    "ignore_merges": false,
    "vocab": {
      "[PAD": 0,
      "[UNK]": 1,
      "!": 2,
      "\"": 3,
      "#": 4,
      "$": 5,
      "%": 6,
      "&": 7,
      "'": 8,
      "(": 9,
      ")": 10,
      "*": 11,
      "+": 12,
      ",": 13,
      "-": 14,
      ".": 15,
      "/": 16,
      "0": 17,
      "1": 18,
      "2": 19,
      "3": 20,
      "4": 21,
      "5": 22,
      "6": 23,
      "7": 24,
      "8": 25,
      "9": 26,
      ":": 27,
      ";": 28,
      "<": 29,
      "=": 30,
      ">": 31,
      "?": 32,
      "@": 33,
      "A": 34,
      "B": 35,
      "C": 36,
      "D": 37,
      "E": 38,
      "F": 39,
      "G": 40,
      "H": 41,
      "I": 42,
      "J": 43,
      "K": 44,
      "L": 45,
      "M": 46,
      "N": 47,
      "O": 48,
      "P": 49,
      "Q": 50,
      "R": 51,
      "S": 52,
      "T": 53,
      "U": 54,
      "V": 55,
      "W": 56,
      "X": 57,
      "Y": 58,
      "Z": 59,
      "[": 60,
      "\\": 61,
      "]": 62,
      "^": 63,
      "_": 64,
      "`": 65,
      "a": 66,
      "b": 67,
      "c": 68,
      "d": 69,
      "e": 70,
      "f": 71,
      "g": 72,
      "h": 73,
      "i": 74,
      "j": 75,
      "k": 76,
      "l": 77,
      "m": 78,
      "n": 79,
      "o": 80,
      "p": 81,
      "q": 82,
      "r": 83,
      "s": 84,
      "t": 85,
      "u": 86,
      "v": 87,
      "w": 88,
      "x": 89,
      "y": 90,
      "z": 91,
      "{": 92,
      "|": 93,
      "}": 94,
      "~": 95,
      "¡": 96,
      "¤": 97,
      "§": 98,
      "¨": 99,
      "­": 100,
      "°": 101,
      "²": 102,
      "³": 103,
      "´": 104,
      "·": 105,
      "¿": 106,
      "×": 107,
      "÷": 108,
      "˚": 109,
      "π": 110,
      "ω": 111,
      "ᆞ": 112,
      "‘": 113,
      "’": 114,
      "“": 115,
      "”": 116,
      "‥": 117,
      "…": 118,
      "‰": 119,
      "※": 120,
      "ⁿ": 121,
      "₂": 122,
      "Ⅰ": 123,
      "ⅱ": 124,
      "ⅲ": 125,
      "←": 126,
      "↑": 127,
      "→": 128,
      "↓": 129,
      "↖": 130,
      "↗": 131,
      "↘": 132,
      "∀": 133,
      "∇": 134,
      "∼": 135,
      "≤": 136,
      "≥": 137,
      "⊙": 138,
      "⌒": 139,
      "①": 140,
      "②": 141,
      "⑦": 142,
      "⑹": 143,
      "ⓒ": 144,
      "ⓛ": 145,
      "ⓞ": 146,
      "─": 147,
      "━": 148,
      "┏": 149,
      "┑": 150,
      "■": 151,
      "□": 152,
      "△": 153,
      "▶": 154,
      "▷": 155,
      "▼": 156,
      "▽": 157,
      "◀": 158,
      "◁": 159,
      "◆": 160,
      "◇": 161,
      "○": 162,
      "◎": 163,
      "●": 164,
      "◐": 165,
      "◑": 166,
      "★": 167,
      "☆": 168,
      "☜": 169,
      "☞": 170,
      "☻": 171,
      "♂": 172,
      "♡": 173,
      "♣": 174,
      "♤": 175,
      "♥": 176,
      "♧": 177,
      "♨": 178,
      "♩": 179,
      "♪": 180,
      "♫": 181,
      "♬": 182,
      "、": 183,
      "。": 184,
      "《": 185,
      "》": 186,
      "「": 187,
      "」": 188,
      "『": 189,
      "』": 190,
      "【": 191,
      "】": 192,
      "あ": 193,
      "い": 194,
      "う": 195,
      "え": 196,
      "お": 197,
      "か": 198,
      "が": 199,
      "き": 200,
      "く": 201,
      "け": 202,
      "こ": 203,
      "さ": 204,
      "し": 205,
      "す": 206,
      "せ": 207,
      "そ": 208,
      "た": 209,
      "だ": 210,
      "っ": 211,
      "つ": 212,
      "づ": 213,
      "て": 214,
      "で": 215,
      "と": 216,
      "な": 217,
      "に": 218,
      "ね": 219,
      "の": 220,
      "は": 221,
      "ひ": 222,
      "ほ": 223,
      "ぽ": 224,
      "ま": 225,
      "む": 226,
      "も": 227,
      "ゃ": 228,
      "よ": 229,
      "ら": 230,
      "り": 231,
      "る": 232,
      "れ": 233,
      "ろ": 234,
      "わ": 235,
      "を": 236,
      "ん": 237,
      "イ": 238,
      "ウ": 239,
      "エ": 240,
      "カ": 241,
      "ガ": 242,
      "ク": 243,
      "グ": 244,
      "コ": 245,
      "シ": 246,
      "ス": 247,
      "セ": 248,
      "タ": 249,
      "ダ": 250,
      "チ": 251,
      "ッ": 252,
      "テ": 253,
      "デ": 254,
      "ト": 255,
      "ニ": 256,
      "ノ": 257,
      "バ": 258,
      "パ": 259,
      "ヒ": 260,
      "ビ": 261,
      "ピ": 262,
      "ベ": 263,
      "マ": 264,
      "ミ": 265,
      "ム": 266,
      "メ": 267,
      "ョ": 268,
      "ヨ": 269,
      "リ": 270,
      "ル": 271,
      "ロ": 272,
      "ワ": 273,
      "ン": 274,
      "ㄱ": 275,
      "ㄲ": 276,
      "ㄳ": 277,
      "ㄴ": 278,
      "ㄵ": 279,
      "ㄶ": 280,
      "ㄷ": 281,
      "ㄸ": 282,
      "ㄹ": 283,
      "ㄺ": 284,
      "ㄻ": 285,
      "ㅀ": 286,
      "ㅁ": 287,
      "ㅂ": 288,
      "ㅃ": 289,
      "ㅄ": 290,
      "ㅅ": 291,
      "ㅆ": 292,
      "ㅇ": 293,
      "ㅈ": 294,
      "ㅉ": 295,
      "ㅊ": 296,
      "ㅋ": 297,
      "ㅌ": 298,
      "ㅍ": 299,
      "ㅎ": 300,
      "ㅏ": 301,
      "ㅐ": 302,
      "ㅑ": 303,
      "ㅒ": 304,
      "ㅓ": 305,
      "ㅔ": 306,
      "ㅕ": 307,
      "ㅖ": 308,
      "ㅗ": 309,
      "ㅘ": 310,
      "ㅚ": 311,
      "ㅛ": 312,
      "ㅜ": 313,
      "ㅝ": 314,
      "ㅞ": 315,
      "ㅟ": 316,
      "ㅠ": 317,
      "ㅡ": 318,
      "ㅢ": 319,
      "ㅣ": 320,
      "ㅤ": 321,
      "ㆀ": 322,
      "ㆍ": 323,
      "一": 324,
      "三": 325,
      "上": 326,
      "下": 327,
      "世": 328,
      "丙": 329,
      "中": 330,
      "乃": 331,
      "也": 332,
      "亞": 333,
      "亡": 334,
      "人": 335,
      "低": 336,
      "佑": 337,
      "作": 338,
      "侖": 339,
      "信": 340,
      "候": 341,
      "倭": 342,
      "傑": 343,
      "僞": 344,
      "先": 345,
      "典": 346,
      "凡": 347,
      "凸": 348,
      "出": 349,
      "刀": 350,
      "刻": 351,
      "前": 352,
      "力": 353,
      "助": 354,
      "勇": 355,
      "化": 356,
      "北": 357,
      "千": 358,
      "及": 359,
      "友": 360,
      "反": 361,
      "古": 362,
      "史": 363,
      "名": 364,
      "吐": 365,
      "味": 366,
      "品": 367,
      "善": 368,
      "喜": 369,
      "器": 370,
      "型": 371,
      "塵": 372,
      "外": 373,
      "大": 374,
      "天": 375,
      "失": 376,
      "女": 377,
      "好": 378,
      "娼": 379,
      "婦": 380,
      "子": 381,
      "孝": 382,
      "宋": 383,
      "完": 384,
      "定": 385,
      "害": 386,
      "家": 387,
      "小": 388,
      "尾": 389,
      "山": 390,
      "岡": 391,
      "峰": 392,
      "峽": 393,
      "希": 394,
      "師": 395,
      "常": 396,
      "年": 397,
      "幸": 398,
      "庭": 399,
      "式": 400,
      "張": 401,
      "彩": 402,
      "彼": 403,
      "待": 404,
      "後": 405,
      "復": 406,
      "心": 407,
      "必": 408,
      "忍": 409,
      "忠": 410,
      "念": 411,
      "急": 412,
      "性": 413,
      "悲": 414,
      "情": 415,
      "惡": 416,
      "愛": 417,
      "感": 418,
      "慧": 419,
      "慰": 420,
      "慶": 421,
      "憎": 422,
      "戰": 423,
      "手": 424,
      "故": 425,
      "敵": 426,
      "新": 427,
      "旋": 428,
      "日": 429,
      "映": 430,
      "曰": 431,
      "曲": 432,
      "最": 433,
      "會": 434,
      "月": 435,
      "有": 436,
      "望": 437,
      "期": 438,
      "木": 439,
      "末": 440,
      "本": 441,
      "朴": 442,
      "林": 443,
      "柱": 444,
      "棒": 445,
      "様": 446,
      "檢": 447,
      "歌": 448,
      "武": 449,
      "死": 450,
      "殖": 451,
      "母": 452,
      "氣": 453,
      "水": 454,
      "永": 455,
      "求": 456,
      "江": 457,
      "法": 458,
      "派": 459,
      "流": 460,
      "淇": 461,
      "湖": 462,
      "漁": 463,
      "演": 464,
      "濡": 465,
      "火": 466,
      "無": 467,
      "熱": 468,
      "父": 469,
      "特": 470,
      "猶": 471,
      "王": 472,
      "現": 473,
      "生": 474,
      "用": 475,
      "田": 476,
      "甲": 477,
      "申": 478,
      "男": 479,
      "画": 480,
      "異": 481,
      "畵": 482,
      "白": 483,
      "的": 484,
      "皿": 485,
      "益": 486,
      "目": 487,
      "直": 488,
      "看": 489,
      "眞": 490,
      "眠": 491,
      "祖": 492,
      "神": 493,
      "禪": 494,
      "秀": 495,
      "私": 496,
      "立": 497,
      "笑": 498,
      "糞": 499,
      "紅": 500,
      "紙": 501,
      "終": 502,
      "結": 503,
      "緣": 504,
      "罪": 505,
      "美": 506,
      "義": 507,
      "者": 508,
      "腸": 509,
      "自": 510,
      "臭": 511,
      "舒": 512,
      "船": 513,
      "色": 514,
      "苦": 515,
      "英": 516,
      "萬": 517,
      "落": 518,
      "葉": 519,
      "蒼": 520,
      "藝": 521,
      "蛇": 522,
      "蜀": 523,
      "蟲": 524,
      "街": 525,
      "衛": 526,
      "要": 527,
      "見": 528,
      "觸": 529,
      "言": 530,
      "記": 531,
      "話": 532,
      "論": 533,
      "謝": 534,
      "讐": 535,
      "車": 536,
      "過": 537,
      "道": 538,
      "遠": 539,
      "部": 540,
      "都": 541,
      "里": 542,
      "野": 543,
      "針": 544,
      "鈴": 545,
      "鋒": 546,
      "錢": 547,
      "間": 548,
      "集": 549,
      "離": 550,
      "難": 551,
      "電": 552,
      "霆": 553,
      "非": 554,
      "面": 555,
      "韓": 556,
      "頑": 557,
      "頭": 558,
      "飛": 559,
      "香": 560,
      "驛": 561,
      "高": 562,
      "가": 563,
      "각": 564,
      "갂": 565,
      "간": 566,
      "갅": 567,
      "갇": 568,
      "갈": 569,
      "갉": 570,
      "감": 571,
      "갑": 572,
      "값": 573,
      "갓": 574,
      "갔": 575,
      "강": 576,
      "갖": 577,
      "갗": 578,
      "갘": 579,
      "같": 580,
      "갚": 581,
      "갛": 582,
      "개": 583,
      "객": 584,
      "갠": 585,
      "갤": 586,
      "갬": 587,
      "갭": 588,
      "갮": 589,
      "갯": 590,
      "갰": 591,
      "갱": 592,
      "갵": 593,
      "갸": 594,
      "갹": 595,
      "걀": 596,
      "걈": 597,
      "걍": 598,
      "걑": 599,
      "걔": 600,
      "걘": 601,
      "거": 602,
      "걱": 603,
      "건": 604,
      "걷": 605,
      "걸": 606,
      "검": 607,
      "겁": 608,
      "겂": 609,
      "것": 610,
      "겄": 611,
      "겅": 612,
      "겈": 613,
      "겉": 614,
      "겋": 615,
      "게": 616,
      "겍": 617,
      "겐": 618,
      "겓": 619,
      "겔": 620,
      "겜": 621,
      "겝": 622,
      "겟": 623,
      "겠": 624,
      "겡": 625,
      "겤": 626,
      "겧": 627,
      "겨": 628,
      "격": 629,
      "겪": 630,
      "견": 631,
      "결": 632,
      "겸": 633,
      "겹": 634,
      "겻": 635,
      "겼": 636,
      "경": 637,
      "곀": 638,
      "곁": 639,
      "곃": 640,
      "계": 641,
      "곅": 642,
      "곗": 643,
      "곘": 644,
      "고": 645,
      "곡": 646,
      "곤": 647,
      "곧": 648,
      "골": 649,
      "곪": 650,
      "곰": 651,
      "곱": 652,
      "곳": 653,
      "공": 654,
      "곶": 655,
      "곷": 656,
      "곸": 657,
      "곻": 658,
      "과": 659,
      "곽": 660,
      "관": 661,
      "괄": 662,
      "광": 663,
      "괘": 664,
      "괜": 665,
      "괞": 666,
      "괨": 667,
      "괭": 668,
      "괴": 669,
      "괸": 670,
      "괺": 671,
      "굉": 672,
      "교": 673,
      "굣": 674,
      "구": 675,
      "국": 676,
      "굯": 677,
      "군": 678,
      "굳": 679,
      "굴": 680,
      "굵": 681,
      "굶": 682,
      "굷": 683,
      "굼": 684,
      "굽": 685,
      "굿": 686,
      "궁": 687,
      "궂": 688,
      "궄": 689,
      "궅": 690,
      "궈": 691,
      "권": 692,
      "궐": 693,
      "궛": 694,
      "궜": 695,
      "궤": 696,
      "궨": 697,
      "귀": 698,
      "귄": 699,
      "귈": 700,
      "귐": 701,
      "귓": 702,
      "귘": 703,
      "규": 704,
      "귝": 705,
      "균": 706,
      "귤": 707,
      "귬": 708,
      "귯": 709,
      "귱": 710,
      "그": 711,
      "극": 712,
      "귻": 713,
      "근": 714,
      "귿": 715,
      "글": 716,
      "긁": 717,
      "금": 718,
      "급": 719,
      "긋": 720,
      "긌": 721,
      "긍": 722,
      "긑": 723,
      "긔": 724,
      "긛": 725,
      "긬": 726,
      "기": 727,
      "긱": 728,
      "긴": 729,
      "길": 730,
      "김": 731,
      "깁": 732,
      "깃": 733,
      "깄": 734,
      "깅": 735,
      "깇": 736,
      "깈": 737,
      "깉": 738,
      "깊": 739,
      "까": 740,
      "깍": 741,
      "깎": 742,
      "깐": 743,
      "깔": 744,
      "깜": 745,
      "깝": 746,
      "깞": 747,
      "깟": 748,
      "깠": 749,
      "깡": 750,
      "깤": 751,
      "깥": 752,
      "깨": 753,
      "깩": 754,
      "깬": 755,
      "깰": 756,
      "깸": 757,
      "깹": 758,
      "깻": 759,
      "깼": 760,
      "깽": 761,
      "꺄": 762,
      "꺅": 763,
      "꺆": 764,
      "꺇": 765,
      "꺍": 766,
      "꺙": 767,
      "꺜": 768,
      "꺠": 769,
      "꺤": 770,
      "꺴": 771,
      "꺼": 772,
      "꺽": 773,
      "꺾": 774,
      "껀": 775,
      "껃": 776,
      "껄": 777,
      "껌": 778,
      "껍": 779,
      "껏": 780,
      "껐": 781,
      "껑": 782,
      "껒": 783,
      "께": 784,
      "껜": 785,
      "껬": 786,
      "껭": 787,
      "껰": 788,
      "껴": 789,
      "꼅": 790,
      "꼇": 791,
      "꼈": 792,
      "꼐": 793,
      "꼬": 794,
      "꼭": 795,
      "꼮": 796,
      "꼰": 797,
      "꼳": 798,
      "꼴": 799,
      "꼼": 800,
      "꼽": 801,
      "꼿": 802,
      "꽁": 803,
      "꽂": 804,
      "꽃": 805,
      "꽄": 806,
      "꽈": 807,
      "꽉": 808,
      "꽝": 809,
      "꽤": 810,
      "꽥": 811,
      "꽦": 812,
      "꽹": 813,
      "꾀": 814,
      "꾜": 815,
      "꾱": 816,
      "꾸": 817,
      "꾹": 818,
      "꾼": 819,
      "꾿": 820,
      "꿀": 821,
      "꿂": 822,
      "꿇": 823,
      "꿈": 824,
      "꿉": 825,
      "꿋": 826,
      "꿍": 827,
      "꿎": 828,
      "꿐": 829,
      "꿑": 830,
      "꿓": 831,
      "꿔": 832,
      "꿘": 833,
      "꿧": 834,
      "꿨": 835,
      "꿩": 836,
      "꿬": 837,
      "꿰": 838,
      "뀌": 839,
      "뀐": 840,
      "뀔": 841,
      "뀜": 842,
      "뀝": 843,
      "뀨": 844,
      "뀩": 845,
      "뀰": 846,
      "뀼": 847,
      "끄": 848,
      "끅": 849,
      "끆": 850,
      "끈": 851,
      "끊": 852,
      "끋": 853,
      "끌": 854,
      "끓": 855,
      "끔": 856,
      "끕": 857,
      "끗": 858,
      "끙": 859,
      "끚": 860,
      "끝": 861,
      "끠": 862,
      "끼": 863,
      "끽": 864,
      "끾": 865,
      "낀": 866,
      "낄": 867,
      "낌": 868,
      "낍": 869,
      "낏": 870,
      "낑": 871,
      "낔": 872,
      "나": 873,
      "낙": 874,
      "낚": 875,
      "낛": 876,
      "난": 877,
      "낞": 878,
      "낟": 879,
      "날": 880,
      "낡": 881,
      "남": 882,
      "납": 883,
      "낫": 884,
      "났": 885,
      "낭": 886,
      "낮": 887,
      "낯": 888,
      "낰": 889,
      "낱": 890,
      "낲": 891,
      "낳": 892,
      "내": 893,
      "낸": 894,
      "낼": 895,
      "냄": 896,
      "냅": 897,
      "냇": 898,
      "냈": 899,
      "냉": 900,
      "냊": 901,
      "냌": 902,
      "냐": 903,
      "냑": 904,
      "냔": 905,
      "냘": 906,
      "냠": 907,
      "냣": 908,
      "냥": 909,
      "냨": 910,
      "냬": 911,
      "넀": 912,
      "너": 913,
      "넉": 914,
      "넋": 915,
      "넌": 916,
      "널": 917,
      "넑": 918,
      "넒": 919,
      "넓": 920,
      "넖": 921,
      "넗": 922,
      "넘": 923,
      "넙": 924,
      "넛": 925,
      "넜": 926,
      "넝": 927,
      "넢": 928,
      "넣": 929,
      "네": 930,
      "넥": 931,
      "넨": 932,
      "넫": 933,
      "넬": 934,
      "넴": 935,
      "넵": 936,
      "넷": 937,
      "넸": 938,
      "넹": 939,
      "넼": 940,
      "넿": 941,
      "녀": 942,
      "녁": 943,
      "년": 944,
      "녈": 945,
      "념": 946,
      "녓": 947,
      "녔": 948,
      "녕": 949,
      "녘": 950,
      "녜": 951,
      "노": 952,
      "녹": 953,
      "논": 954,
      "녿": 955,
      "놀": 956,
      "놃": 957,
      "놈": 958,
      "놉": 959,
      "놋": 960,
      "농": 961,
      "놑": 962,
      "높": 963,
      "놓": 964,
      "놔": 965,
      "놕": 966,
      "놘": 967,
      "놜": 968,
      "놧": 969,
      "놨": 970,
      "놬": 971,
      "놰": 972,
      "뇌": 973,
      "뇔": 974,
      "뇨": 975,
      "뇬": 976,
      "뇰": 977,
      "뇽": 978,
      "뇾": 979,
      "누": 980,
      "눅": 981,
      "눈": 982,
      "눊": 983,
      "눌": 984,
      "눔": 985,
      "눕": 986,
      "눙": 987,
      "눠": 988,
      "눴": 989,
      "눼": 990,
      "뉘": 991,
      "뉜": 992,
      "뉠": 993,
      "뉨": 994,
      "뉴": 995,
      "늄": 996,
      "늉": 997,
      "느": 998,
      "늑": 999,
      "는": 1000,
      "늗": 1001,
      "늘": 1002,
      "늙": 1003,
      "늠": 1004,
      "늡": 1005,
      "늣": 1006,
      "능": 1007,
      "늦": 1008,
      "늨": 1009,
      "늪": 1010,
      "늬": 1011,
      "늰": 1012,
      "늴": 1013,
      "닁": 1014,
      "니": 1015,
      "닉": 1016,
      "닊": 1017,
      "닌": 1018,
      "닏": 1019,
      "닐": 1020,
      "님": 1021,
      "닙": 1022,
      "닛": 1023,
      "닝": 1024,
      "닟": 1025,
      "닠": 1026,
      "다": 1027,
      "닥": 1028,
      "닦": 1029,
      "단": 1030,
      "닫": 1031,
      "달": 1032,
      "닭": 1033,
      "닮": 1034,
      "닯": 1035,
      "닳": 1036,
      "담": 1037,
      "답": 1038,
      "닶": 1039,
      "닷": 1040,
      "당": 1041,
      "닺": 1042,
      "닻": 1043,
      "닼": 1044,
      "닽": 1045,
      "닾": 1046,
      "닿": 1047,
      "대": 1048,
      "댁": 1049,
      "댄": 1050,
      "댇": 1051,
      "댈": 1052,
      "댐": 1053,
      "댑": 1054,
      "댓": 1055,
      "댔": 1056,
      "댕": 1057,
      "댖": 1058,
      "댘": 1059,
      "댜": 1060,
      "댝": 1061,
      "댠": 1062,
      "댣": 1063,
      "댬": 1064,
      "댰": 1065,
      "댸": 1066,
      "더": 1067,
      "덕": 1068,
      "던": 1069,
      "덛": 1070,
      "덜": 1071,
      "덟": 1072,
      "덤": 1073,
      "덥": 1074,
      "덧": 1075,
      "덨": 1076,
      "덩": 1077,
      "덫": 1078,
      "덮": 1079,
      "덯": 1080,
      "데": 1081,
      "덱": 1082,
      "덴": 1083,
      "덷": 1084,
      "델": 1085,
      "뎀": 1086,
      "뎁": 1087,
      "뎃": 1088,
      "뎄": 1089,
      "뎅": 1090,
      "뎈": 1091,
      "뎋": 1092,
      "뎌": 1093,
      "뎍": 1094,
      "뎐": 1095,
      "뎜": 1096,
      "뎟": 1097,
      "뎠": 1098,
      "뎡": 1099,
      "뎨": 1100,
      "도": 1101,
      "독": 1102,
      "돈": 1103,
      "돋": 1104,
      "돌": 1105,
      "돔": 1106,
      "돕": 1107,
      "돗": 1108,
      "동": 1109,
      "돜": 1110,
      "돟": 1111,
      "돠": 1112,
      "돤": 1113,
      "돱": 1114,
      "돵": 1115,
      "돼": 1116,
      "됀": 1117,
      "됄": 1118,
      "됌": 1119,
      "됏": 1120,
      "됐": 1121,
      "됑": 1122,
      "되": 1123,
      "된": 1124,
      "될": 1125,
      "됨": 1126,
      "됩": 1127,
      "됫": 1128,
      "됬": 1129,
      "됭": 1130,
      "됴": 1131,
      "됻": 1132,
      "두": 1133,
      "둑": 1134,
      "둔": 1135,
      "둗": 1136,
      "둘": 1137,
      "둠": 1138,
      "둡": 1139,
      "둣": 1140,
      "둥": 1141,
      "둦": 1142,
      "둬": 1143,
      "둿": 1144,
      "뒀": 1145,
      "뒈": 1146,
      "뒌": 1147,
      "뒤": 1148,
      "뒬": 1149,
      "뒷": 1150,
      "뒹": 1151,
      "뒺": 1152,
      "듀": 1153,
      "듁": 1154,
      "듕": 1155,
      "드": 1156,
      "득": 1157,
      "든": 1158,
      "듣": 1159,
      "들": 1160,
      "듦": 1161,
      "듧": 1162,
      "듨": 1163,
      "듬": 1164,
      "듭": 1165,
      "듯": 1166,
      "등": 1167,
      "듲": 1168,
      "듴": 1169,
      "듵": 1170,
      "듷": 1171,
      "듸": 1172,
      "딍": 1173,
      "디": 1174,
      "딕": 1175,
      "딘": 1176,
      "딛": 1177,
      "딜": 1178,
      "딤": 1179,
      "딥": 1180,
      "딧": 1181,
      "딨": 1182,
      "딩": 1183,
      "딪": 1184,
      "딫": 1185,
      "딬": 1186,
      "딮": 1187,
      "따": 1188,
      "딱": 1189,
      "딲": 1190,
      "딴": 1191,
      "딷": 1192,
      "딸": 1193,
      "땀": 1194,
      "땁": 1195,
      "땃": 1196,
      "땄": 1197,
      "땅": 1198,
      "땈": 1199,
      "땋": 1200,
      "때": 1201,
      "땍": 1202,
      "땐": 1203,
      "땓": 1204,
      "땔": 1205,
      "땜": 1206,
      "땝": 1207,
      "땟": 1208,
      "땠": 1209,
      "땡": 1210,
      "땨": 1211,
      "땸": 1212,
      "떄": 1213,
      "떈": 1214,
      "떌": 1215,
      "떔": 1216,
      "떘": 1217,
      "떙": 1218,
      "떠": 1219,
      "떡": 1220,
      "떤": 1221,
      "떨": 1222,
      "떫": 1223,
      "떰": 1224,
      "떱": 1225,
      "떳": 1226,
      "떴": 1227,
      "떵": 1228,
      "떻": 1229,
      "떼": 1230,
      "떽": 1231,
      "뗀": 1232,
      "뗄": 1233,
      "뗑": 1234,
      "뗬": 1235,
      "뗴": 1236,
      "뗵": 1237,
      "뗼": 1238,
      "또": 1239,
      "똑": 1240,
      "똔": 1241,
      "똗": 1242,
      "똘": 1243,
      "똠": 1244,
      "똥": 1245,
      "똭": 1246,
      "똴": 1247,
      "뙀": 1248,
      "뙁": 1249,
      "뙇": 1250,
      "뚜": 1251,
      "뚝": 1252,
      "뚠": 1253,
      "뚤": 1254,
      "뚫": 1255,
      "뚬": 1256,
      "뚯": 1257,
      "뚱": 1258,
      "뛰": 1259,
      "뛴": 1260,
      "뛸": 1261,
      "뜀": 1262,
      "뜁": 1263,
      "뜌": 1264,
      "뜍": 1265,
      "뜨": 1266,
      "뜩": 1267,
      "뜬": 1268,
      "뜯": 1269,
      "뜰": 1270,
      "뜷": 1271,
      "뜸": 1272,
      "뜻": 1273,
      "뜽": 1274,
      "띀": 1275,
      "띁": 1276,
      "띄": 1277,
      "띈": 1278,
      "띌": 1279,
      "띔": 1280,
      "띠": 1281,
      "띡": 1282,
      "띤": 1283,
      "띨": 1284,
      "띰": 1285,
      "띱": 1286,
      "띵": 1287,
      "라": 1288,
      "락": 1289,
      "란": 1290,
      "랃": 1291,
      "랄": 1292,
      "람": 1293,
      "랍": 1294,
      "랏": 1295,
      "랐": 1296,
      "랑": 1297,
      "랒": 1298,
      "랔": 1299,
      "랖": 1300,
      "랗": 1301,
      "래": 1302,
      "랙": 1303,
      "랜": 1304,
      "랟": 1305,
      "랠": 1306,
      "램": 1307,
      "랩": 1308,
      "랫": 1309,
      "랬": 1310,
      "랭": 1311,
      "랰": 1312,
      "랴": 1313,
      "략": 1314,
      "랽": 1315,
      "럈": 1316,
      "량": 1317,
      "럐": 1318,
      "럔": 1319,
      "럤": 1320,
      "러": 1321,
      "럭": 1322,
      "런": 1323,
      "럴": 1324,
      "럼": 1325,
      "럽": 1326,
      "럾": 1327,
      "럿": 1328,
      "렀": 1329,
      "렁": 1330,
      "렄": 1331,
      "렇": 1332,
      "레": 1333,
      "렉": 1334,
      "렌": 1335,
      "렐": 1336,
      "렘": 1337,
      "렙": 1338,
      "렛": 1339,
      "렜": 1340,
      "렝": 1341,
      "렠": 1342,
      "려": 1343,
      "력": 1344,
      "련": 1345,
      "렬": 1346,
      "렴": 1347,
      "렵": 1348,
      "렷": 1349,
      "렸": 1350,
      "령": 1351,
      "렿": 1352,
      "례": 1353,
      "롁": 1354,
      "롄": 1355,
      "로": 1356,
      "록": 1357,
      "론": 1358,
      "롤": 1359,
      "롬": 1360,
      "롭": 1361,
      "롯": 1362,
      "롱": 1363,
      "롴": 1364,
      "롷": 1365,
      "롸": 1366,
      "롹": 1367,
      "뢀": 1368,
      "뢈": 1369,
      "뢉": 1370,
      "뢍": 1371,
      "뢔": 1372,
      "뢰": 1373,
      "뢱": 1374,
      "료": 1375,
      "룔": 1376,
      "룕": 1377,
      "룡": 1378,
      "루": 1379,
      "룩": 1380,
      "룬": 1381,
      "룯": 1382,
      "룰": 1383,
      "룸": 1384,
      "룹": 1385,
      "룻": 1386,
      "룽": 1387,
      "뤄": 1388,
      "뤌": 1389,
      "뤘": 1390,
      "뤠": 1391,
      "뤡": 1392,
      "뤰": 1393,
      "뤼": 1394,
      "뤽": 1395,
      "륄": 1396,
      "륒": 1397,
      "류": 1398,
      "륙": 1399,
      "륜": 1400,
      "률": 1401,
      "륨": 1402,
      "륫": 1403,
      "륭": 1404,
      "륰": 1405,
      "르": 1406,
      "륵": 1407,
      "른": 1408,
      "륺": 1409,
      "를": 1410,
      "름": 1411,
      "릅": 1412,
      "릇": 1413,
      "릉": 1414,
      "릋": 1415,
      "릌": 1416,
      "릎": 1417,
      "릏": 1418,
      "릐": 1419,
      "릣": 1420,
      "리": 1421,
      "릭": 1422,
      "린": 1423,
      "릳": 1424,
      "릴": 1425,
      "림": 1426,
      "립": 1427,
      "릿": 1428,
      "맀": 1429,
      "링": 1430,
      "맂": 1431,
      "맄": 1432,
      "맆": 1433,
      "마": 1434,
      "막": 1435,
      "만": 1436,
      "맍": 1437,
      "많": 1438,
      "맏": 1439,
      "말": 1440,
      "맑": 1441,
      "맒": 1442,
      "맖": 1443,
      "맗": 1444,
      "맘": 1445,
      "맙": 1446,
      "맛": 1447,
      "맜": 1448,
      "망": 1449,
      "맞": 1450,
      "맟": 1451,
      "맠": 1452,
      "맡": 1453,
      "맣": 1454,
      "매": 1455,
      "맥": 1456,
      "맨": 1457,
      "맬": 1458,
      "맴": 1459,
      "맵": 1460,
      "맷": 1461,
      "맸": 1462,
      "맹": 1463,
      "맺": 1464,
      "맻": 1465,
      "먀": 1466,
      "먄": 1467,
      "먈": 1468,
      "먕": 1469,
      "먠": 1470,
      "머": 1471,
      "먹": 1472,
      "먼": 1473,
      "먾": 1474,
      "멀": 1475,
      "멈": 1476,
      "멉": 1477,
      "멋": 1478,
      "멌": 1479,
      "멍": 1480,
      "멎": 1481,
      "멐": 1482,
      "멓": 1483,
      "메": 1484,
      "멕": 1485,
      "멘": 1486,
      "멜": 1487,
      "멤": 1488,
      "멧": 1489,
      "멩": 1490,
      "멬": 1491,
      "며": 1492,
      "멱": 1493,
      "면": 1494,
      "멸": 1495,
      "몀": 1496,
      "몃": 1497,
      "몄": 1498,
      "명": 1499,
      "몆": 1500,
      "몇": 1501,
      "모": 1502,
      "목": 1503,
      "몫": 1504,
      "몬": 1505,
      "몰": 1506,
      "몸": 1507,
      "몹": 1508,
      "못": 1509,
      "몽": 1510,
      "몾": 1511,
      "뫀": 1512,
      "뫁": 1513,
      "뫃": 1514,
      "뫄": 1515,
      "뫘": 1516,
      "뫙": 1517,
      "뫼": 1518,
      "묘": 1519,
      "묠": 1520,
      "묨": 1521,
      "묭": 1522,
      "무": 1523,
      "묵": 1524,
      "묶": 1525,
      "문": 1526,
      "묻": 1527,
      "물": 1528,
      "묽": 1529,
      "뭄": 1530,
      "뭇": 1531,
      "뭉": 1532,
      "뭍": 1533,
      "뭏": 1534,
      "뭐": 1535,
      "뭔": 1536,
      "뭘": 1537,
      "뭡": 1538,
      "뭣": 1539,
      "뭥": 1540,
      "뭨": 1541,
      "뭬": 1542,
      "뮁": 1543,
      "뮈": 1544,
      "뮌": 1545,
      "뮐": 1546,
      "뮝": 1547,
      "뮤": 1548,
      "뮨": 1549,
      "뮬": 1550,
      "므": 1551,
      "믄": 1552,
      "믈": 1553,
      "믐": 1554,
      "믓": 1555,
      "믕": 1556,
      "믜": 1557,
      "미": 1558,
      "믹": 1559,
      "믺": 1560,
      "민": 1561,
      "믿": 1562,
      "밀": 1563,
      "밈": 1564,
      "밉": 1565,
      "밋": 1566,
      "밌": 1567,
      "밍": 1568,
      "밎": 1569,
      "및": 1570,
      "밐": 1571,
      "밑": 1572,
      "밓": 1573,
      "바": 1574,
      "박": 1575,
      "밖": 1576,
      "반": 1577,
      "받": 1578,
      "발": 1579,
      "밝": 1580,
      "밞": 1581,
      "밟": 1582,
      "밣": 1583,
      "밤": 1584,
      "밥": 1585,
      "밧": 1586,
      "밨": 1587,
      "방": 1588,
      "밫": 1589,
      "밬": 1590,
      "밭": 1591,
      "배": 1592,
      "백": 1593,
      "밴": 1594,
      "밷": 1595,
      "밸": 1596,
      "뱀": 1597,
      "뱁": 1598,
      "뱃": 1599,
      "뱅": 1600,
      "뱆": 1601,
      "뱉": 1602,
      "뱌": 1603,
      "뱍": 1604,
      "뱎": 1605,
      "뱐": 1606,
      "뱔": 1607,
      "버": 1608,
      "벅": 1609,
      "번": 1610,
      "벋": 1611,
      "벌": 1612,
      "범": 1613,
      "법": 1614,
      "벗": 1615,
      "벙": 1616,
      "벚": 1617,
      "벝": 1618,
      "베": 1619,
      "벡": 1620,
      "벤": 1621,
      "벨": 1622,
      "벰": 1623,
      "벳": 1624,
      "벴": 1625,
      "벵": 1626,
      "벸": 1627,
      "벹": 1628,
      "벼": 1629,
      "벽": 1630,
      "변": 1631,
      "별": 1632,
      "볌": 1633,
      "볍": 1634,
      "볐": 1635,
      "병": 1636,
      "볓": 1637,
      "볔": 1638,
      "볕": 1639,
      "볠": 1640,
      "보": 1641,
      "복": 1642,
      "볶": 1643,
      "본": 1644,
      "볹": 1645,
      "볻": 1646,
      "볼": 1647,
      "볽": 1648,
      "볾": 1649,
      "봄": 1650,
      "봅": 1651,
      "봇": 1652,
      "봈": 1653,
      "봉": 1654,
      "봊": 1655,
      "봏": 1656,
      "봐": 1657,
      "봑": 1658,
      "봔": 1659,
      "봗": 1660,
      "봘": 1661,
      "봙": 1662,
      "봣": 1663,
      "봤": 1664,
      "봨": 1665,
      "봫": 1666,
      "봬": 1667,
      "봭": 1668,
      "봴": 1669,
      "봵": 1670,
      "뵈": 1671,
      "뵌": 1672,
      "뵐": 1673,
      "뵙": 1674,
      "뵛": 1675,
      "뵜": 1676,
      "뵤": 1677,
      "뵨": 1678,
      "뵹": 1679,
      "부": 1680,
      "북": 1681,
      "분": 1682,
      "붅": 1683,
      "붆": 1684,
      "붇": 1685,
      "불": 1686,
      "붉": 1687,
      "붐": 1688,
      "붑": 1689,
      "붓": 1690,
      "붕": 1691,
      "붙": 1692,
      "붜": 1693,
      "붤": 1694,
      "붸": 1695,
      "붹": 1696,
      "뷁": 1697,
      "뷃": 1698,
      "뷐": 1699,
      "뷔": 1700,
      "뷰": 1701,
      "뷴": 1702,
      "뷸": 1703,
      "븅": 1704,
      "브": 1705,
      "븍": 1706,
      "븐": 1707,
      "블": 1708,
      "븜": 1709,
      "븟": 1710,
      "븡": 1711,
      "븨": 1712,
      "븬": 1713,
      "빂": 1714,
      "비": 1715,
      "빅": 1716,
      "빈": 1717,
      "빋": 1718,
      "빌": 1719,
      "빔": 1720,
      "빕": 1721,
      "빗": 1722,
      "빙": 1723,
      "빚": 1724,
      "빛": 1725,
      "빝": 1726,
      "빠": 1727,
      "빡": 1728,
      "빢": 1729,
      "빤": 1730,
      "빨": 1731,
      "빰": 1732,
      "빱": 1733,
      "빳": 1734,
      "빴": 1735,
      "빵": 1736,
      "빻": 1737,
      "빼": 1738,
      "빽": 1739,
      "뺀": 1740,
      "뺄": 1741,
      "뺌": 1742,
      "뺍": 1743,
      "뺏": 1744,
      "뺐": 1745,
      "뺑": 1746,
      "뺒": 1747,
      "뺘": 1748,
      "뺠": 1749,
      "뺨": 1750,
      "뺴": 1751,
      "뺵": 1752,
      "뻈": 1753,
      "뻉": 1754,
      "뻐": 1755,
      "뻑": 1756,
      "뻔": 1757,
      "뻗": 1758,
      "뻘": 1759,
      "뻡": 1760,
      "뻣": 1761,
      "뻤": 1762,
      "뻥": 1763,
      "뻬": 1764,
      "뻭": 1765,
      "뻴": 1766,
      "뼈": 1767,
      "뼉": 1768,
      "뼘": 1769,
      "뼛": 1770,
      "뼜": 1771,
      "뽀": 1772,
      "뽁": 1773,
      "뽄": 1774,
      "뽈": 1775,
      "뽐": 1776,
      "뽑": 1777,
      "뽕": 1778,
      "뽜": 1779,
      "뽠": 1780,
      "뽯": 1781,
      "뽱": 1782,
      "뾰": 1783,
      "뿅": 1784,
      "뿌": 1785,
      "뿍": 1786,
      "뿐": 1787,
      "뿔": 1788,
      "뿜": 1789,
      "뿟": 1790,
      "뿡": 1791,
      "뿨": 1792,
      "뿩": 1793,
      "뿰": 1794,
      "쀍": 1795,
      "쀠": 1796,
      "쀨": 1797,
      "쀼": 1798,
      "쁀": 1799,
      "쁘": 1800,
      "쁜": 1801,
      "쁠": 1802,
      "쁨": 1803,
      "쁩": 1804,
      "삐": 1805,
      "삑": 1806,
      "삔": 1807,
      "삘": 1808,
      "삤": 1809,
      "삥": 1810,
      "사": 1811,
      "삭": 1812,
      "산": 1813,
      "삳": 1814,
      "살": 1815,
      "삵": 1816,
      "삶": 1817,
      "삷": 1818,
      "삻": 1819,
      "삼": 1820,
      "삽": 1821,
      "삿": 1822,
      "샀": 1823,
      "상": 1824,
      "샅": 1825,
      "샆": 1826,
      "새": 1827,
      "색": 1828,
      "샊": 1829,
      "샌": 1830,
      "샐": 1831,
      "샘": 1832,
      "샙": 1833,
      "샛": 1834,
      "샜": 1835,
      "생": 1836,
      "샠": 1837,
      "샡": 1838,
      "샣": 1839,
      "샤": 1840,
      "샥": 1841,
      "샨": 1842,
      "샬": 1843,
      "샴": 1844,
      "샵": 1845,
      "샷": 1846,
      "샹": 1847,
      "샼": 1848,
      "샾": 1849,
      "섀": 1850,
      "섁": 1851,
      "서": 1852,
      "석": 1853,
      "섞": 1854,
      "선": 1855,
      "섣": 1856,
      "설": 1857,
      "섥": 1858,
      "섫": 1859,
      "섬": 1860,
      "섭": 1861,
      "섯": 1862,
      "섰": 1863,
      "성": 1864,
      "섲": 1865,
      "섳": 1866,
      "섴": 1867,
      "섵": 1868,
      "섶": 1869,
      "섷": 1870,
      "세": 1871,
      "섹": 1872,
      "섺": 1873,
      "섻": 1874,
      "센": 1875,
      "섿": 1876,
      "셀": 1877,
      "셈": 1878,
      "셉": 1879,
      "셋": 1880,
      "셌": 1881,
      "셍": 1882,
      "셐": 1883,
      "셑": 1884,
      "셔": 1885,
      "셕": 1886,
      "션": 1887,
      "셜": 1888,
      "셤": 1889,
      "셥": 1890,
      "셧": 1891,
      "셨": 1892,
      "셩": 1893,
      "셰": 1894,
      "셴": 1895,
      "셸": 1896,
      "솀": 1897,
      "소": 1898,
      "속": 1899,
      "솎": 1900,
      "손": 1901,
      "솓": 1902,
      "솔": 1903,
      "솜": 1904,
      "솝": 1905,
      "솟": 1906,
      "송": 1907,
      "솢": 1908,
      "솤": 1909,
      "솥": 1910,
      "솧": 1911,
      "솨": 1912,
      "솰": 1913,
      "쇄": 1914,
      "쇅": 1915,
      "쇠": 1916,
      "쇳": 1917,
      "쇼": 1918,
      "숀": 1919,
      "숄": 1920,
      "숍": 1921,
      "숏": 1922,
      "숑": 1923,
      "숖": 1924,
      "수": 1925,
      "숙": 1926,
      "순": 1927,
      "숟": 1928,
      "술": 1929,
      "숨": 1930,
      "숩": 1931,
      "숫": 1932,
      "숭": 1933,
      "숯": 1934,
      "숰": 1935,
      "숱": 1936,
      "숲": 1937,
      "숴": 1938,
      "숼": 1939,
      "쉅": 1940,
      "쉈": 1941,
      "쉐": 1942,
      "쉑": 1943,
      "쉒": 1944,
      "쉔": 1945,
      "쉘": 1946,
      "쉡": 1947,
      "쉣": 1948,
      "쉥": 1949,
      "쉩": 1950,
      "쉬": 1951,
      "쉭": 1952,
      "쉰": 1953,
      "쉴": 1954,
      "쉼": 1955,
      "쉽": 1956,
      "쉿": 1957,
      "슁": 1958,
      "슈": 1959,
      "슉": 1960,
      "슌": 1961,
      "슐": 1962,
      "슘": 1963,
      "슛": 1964,
      "슝": 1965,
      "슠": 1966,
      "스": 1967,
      "슥": 1968,
      "슨": 1969,
      "슫": 1970,
      "슬": 1971,
      "슭": 1972,
      "슲": 1973,
      "슴": 1974,
      "습": 1975,
      "슷": 1976,
      "승": 1977,
      "슺": 1978,
      "슼": 1979,
      "슽": 1980,
      "슾": 1981,
      "싀": 1982,
      "싄": 1983,
      "싐": 1984,
      "싑": 1985,
      "싖": 1986,
      "시": 1987,
      "식": 1988,
      "신": 1989,
      "싡": 1990,
      "싢": 1991,
      "싣": 1992,
      "실": 1993,
      "싫": 1994,
      "심": 1995,
      "십": 1996,
      "싯": 1997,
      "싰": 1998,
      "싱": 1999,
      "싲": 2000,
      "싴": 2001,
      "싶": 2002,
      "싷": 2003,
      "싸": 2004,
      "싹": 2005,
      "싼": 2006,
      "쌀": 2007,
      "쌂": 2008,
      "쌈": 2009,
      "쌉": 2010,
      "쌋": 2011,
      "쌌": 2012,
      "쌍": 2013,
      "쌓": 2014,
      "쌔": 2015,
      "쌕": 2016,
      "쌘": 2017,
      "쌜": 2018,
      "쌤": 2019,
      "쌩": 2020,
      "쌰": 2021,
      "썀": 2022,
      "썁": 2023,
      "썅": 2024,
      "썌": 2025,
      "썜": 2026,
      "썡": 2027,
      "써": 2028,
      "썩": 2029,
      "썪": 2030,
      "썬": 2031,
      "썰": 2032,
      "썱": 2033,
      "썸": 2034,
      "썹": 2035,
      "썻": 2036,
      "썼": 2037,
      "썽": 2038,
      "쎀": 2039,
      "쎄": 2040,
      "쎅": 2041,
      "쎈": 2042,
      "쎌": 2043,
      "쎔": 2044,
      "쎗": 2045,
      "쎘": 2046,
      "쎠": 2047,
      "쎤": 2048,
      "쎴": 2049,
      "쎼": 2050,
      "쎾": 2051,
      "쏔": 2052,
      "쏘": 2053,
      "쏙": 2054,
      "쏜": 2055,
      "쏟": 2056,
      "쏠": 2057,
      "쏨": 2058,
      "쏩": 2059,
      "쏫": 2060,
      "쏭": 2061,
      "쏱": 2062,
      "쏴": 2063,
      "쐈": 2064,
      "쐉": 2065,
      "쐌": 2066,
      "쐐": 2067,
      "쐬": 2068,
      "쑈": 2069,
      "쑝": 2070,
      "쑤": 2071,
      "쑥": 2072,
      "쑨": 2073,
      "쑬": 2074,
      "쑴": 2075,
      "쑹": 2076,
      "쒀": 2077,
      "쒕": 2078,
      "쒜": 2079,
      "쒯": 2080,
      "쒰": 2081,
      "쒸": 2082,
      "쓉": 2083,
      "쓔": 2084,
      "쓕": 2085,
      "쓰": 2086,
      "쓱": 2087,
      "쓴": 2088,
      "쓸": 2089,
      "쓹": 2090,
      "씀": 2091,
      "씁": 2092,
      "씅": 2093,
      "씌": 2094,
      "씐": 2095,
      "씝": 2096,
      "씨": 2097,
      "씩": 2098,
      "씪": 2099,
      "씬": 2100,
      "씰": 2101,
      "씸": 2102,
      "씹": 2103,
      "씻": 2104,
      "씼": 2105,
      "씽": 2106,
      "앀": 2107,
      "앁": 2108,
      "아": 2109,
      "악": 2110,
      "안": 2111,
      "앉": 2112,
      "않": 2113,
      "앋": 2114,
      "알": 2115,
      "앍": 2116,
      "앎": 2117,
      "앓": 2118,
      "암": 2119,
      "압": 2120,
      "앖": 2121,
      "앗": 2122,
      "았": 2123,
      "앙": 2124,
      "앚": 2125,
      "앜": 2126,
      "앞": 2127,
      "앟": 2128,
      "애": 2129,
      "액": 2130,
      "앤": 2131,
      "앨": 2132,
      "앰": 2133,
      "앱": 2134,
      "앳": 2135,
      "앴": 2136,
      "앵": 2137,
      "앸": 2138,
      "야": 2139,
      "약": 2140,
      "얀": 2141,
      "얄": 2142,
      "얇": 2143,
      "얌": 2144,
      "얍": 2145,
      "얏": 2146,
      "얐": 2147,
      "양": 2148,
      "얔": 2149,
      "얕": 2150,
      "얗": 2151,
      "얘": 2152,
      "얙": 2153,
      "얜": 2154,
      "어": 2155,
      "억": 2156,
      "얶": 2157,
      "얷": 2158,
      "언": 2159,
      "얹": 2160,
      "얺": 2161,
      "얻": 2162,
      "얼": 2163,
      "얽": 2164,
      "엃": 2165,
      "엄": 2166,
      "업": 2167,
      "없": 2168,
      "엇": 2169,
      "었": 2170,
      "엉": 2171,
      "엊": 2172,
      "엋": 2173,
      "엌": 2174,
      "엎": 2175,
      "엏": 2176,
      "에": 2177,
      "엑": 2178,
      "엓": 2179,
      "엔": 2180,
      "엘": 2181,
      "엠": 2182,
      "엡": 2183,
      "엢": 2184,
      "엣": 2185,
      "엤": 2186,
      "엥": 2187,
      "엨": 2188,
      "엪": 2189,
      "여": 2190,
      "역": 2191,
      "엮": 2192,
      "연": 2193,
      "엲": 2194,
      "엳": 2195,
      "열": 2196,
      "엷": 2197,
      "염": 2198,
      "엽": 2199,
      "엾": 2200,
      "엿": 2201,
      "였": 2202,
      "영": 2203,
      "옂": 2204,
      "옄": 2205,
      "옅": 2206,
      "옆": 2207,
      "옇": 2208,
      "예": 2209,
      "옌": 2210,
      "옐": 2211,
      "옘": 2212,
      "옙": 2213,
      "옛": 2214,
      "옜": 2215,
      "오": 2216,
      "옥": 2217,
      "온": 2218,
      "올": 2219,
      "옭": 2220,
      "옮": 2221,
      "옯": 2222,
      "옰": 2223,
      "옳": 2224,
      "옴": 2225,
      "옵": 2226,
      "옶": 2227,
      "옷": 2228,
      "옹": 2229,
      "옼": 2230,
      "옾": 2231,
      "옿": 2232,
      "와": 2233,
      "왁": 2234,
      "왃": 2235,
      "완": 2236,
      "왅": 2237,
      "왈": 2238,
      "왑": 2239,
      "왓": 2240,
      "왔": 2241,
      "왕": 2242,
      "왘": 2243,
      "왛": 2244,
      "왜": 2245,
      "왝": 2246,
      "왠": 2247,
      "왤": 2248,
      "왦": 2249,
      "외": 2250,
      "왹": 2251,
      "왼": 2252,
      "욀": 2253,
      "욈": 2254,
      "욌": 2255,
      "요": 2256,
      "욕": 2257,
      "욘": 2258,
      "욜": 2259,
      "욤": 2260,
      "욥": 2261,
      "욧": 2262,
      "용": 2263,
      "욬": 2264,
      "욯": 2265,
      "우": 2266,
      "욱": 2267,
      "욲": 2268,
      "운": 2269,
      "욷": 2270,
      "울": 2271,
      "욹": 2272,
      "욺": 2273,
      "움": 2274,
      "웁": 2275,
      "웃": 2276,
      "웄": 2277,
      "웅": 2278,
      "웈": 2279,
      "워": 2280,
      "웍": 2281,
      "원": 2282,
      "월": 2283,
      "웜": 2284,
      "웟": 2285,
      "웠": 2286,
      "웡": 2287,
      "웤": 2288,
      "웨": 2289,
      "웩": 2290,
      "웬": 2291,
      "웰": 2292,
      "웸": 2293,
      "웹": 2294,
      "웽": 2295,
      "윀": 2296,
      "위": 2297,
      "윅": 2298,
      "윈": 2299,
      "윌": 2300,
      "윔": 2301,
      "윕": 2302,
      "윖": 2303,
      "윗": 2304,
      "윘": 2305,
      "윙": 2306,
      "유": 2307,
      "육": 2308,
      "윤": 2309,
      "율": 2310,
      "윰": 2311,
      "윱": 2312,
      "윳": 2313,
      "융": 2314,
      "으": 2315,
      "윽": 2316,
      "은": 2317,
      "읃": 2318,
      "을": 2319,
      "읅": 2320,
      "읆": 2321,
      "읇": 2322,
      "읊": 2323,
      "음": 2324,
      "읍": 2325,
      "읎": 2326,
      "읏": 2327,
      "읐": 2328,
      "응": 2329,
      "읔": 2330,
      "읖": 2331,
      "의": 2332,
      "읭": 2333,
      "읮": 2334,
      "이": 2335,
      "익": 2336,
      "읶": 2337,
      "인": 2338,
      "읹": 2339,
      "읺": 2340,
      "읻": 2341,
      "일": 2342,
      "읽": 2343,
      "읿": 2344,
      "잃": 2345,
      "임": 2346,
      "입": 2347,
      "잇": 2348,
      "있": 2349,
      "잉": 2350,
      "잊": 2351,
      "잌": 2352,
      "잎": 2353,
      "잏": 2354,
      "자": 2355,
      "작": 2356,
      "잔": 2357,
      "잖": 2358,
      "잗": 2359,
      "잘": 2360,
      "잛": 2361,
      "잠": 2362,
      "잡": 2363,
      "잣": 2364,
      "잤": 2365,
      "장": 2366,
      "잦": 2367,
      "잫": 2368,
      "재": 2369,
      "잭": 2370,
      "잰": 2371,
      "잴": 2372,
      "잼": 2373,
      "잽": 2374,
      "잿": 2375,
      "쟀": 2376,
      "쟁": 2377,
      "쟄": 2378,
      "쟈": 2379,
      "쟉": 2380,
      "쟌": 2381,
      "쟎": 2382,
      "쟘": 2383,
      "쟙": 2384,
      "쟝": 2385,
      "쟞": 2386,
      "쟤": 2387,
      "쟨": 2388,
      "쟾": 2389,
      "저": 2390,
      "적": 2391,
      "전": 2392,
      "젅": 2393,
      "젆": 2394,
      "젇": 2395,
      "절": 2396,
      "젊": 2397,
      "젋": 2398,
      "점": 2399,
      "접": 2400,
      "젓": 2401,
      "젔": 2402,
      "정": 2403,
      "젖": 2404,
      "젛": 2405,
      "제": 2406,
      "젝": 2407,
      "젠": 2408,
      "젤": 2409,
      "젧": 2410,
      "젬": 2411,
      "젭": 2412,
      "젯": 2413,
      "져": 2414,
      "젹": 2415,
      "젼": 2416,
      "졀": 2417,
      "졈": 2418,
      "졉": 2419,
      "졋": 2420,
      "졌": 2421,
      "졍": 2422,
      "졎": 2423,
      "졏": 2424,
      "졐": 2425,
      "졑": 2426,
      "졓": 2427,
      "졔": 2428,
      "조": 2429,
      "족": 2430,
      "존": 2431,
      "졷": 2432,
      "졸": 2433,
      "좀": 2434,
      "좁": 2435,
      "좃": 2436,
      "종": 2437,
      "좆": 2438,
      "좇": 2439,
      "좉": 2440,
      "좊": 2441,
      "좋": 2442,
      "좌": 2443,
      "좍": 2444,
      "좐": 2445,
      "좔": 2446,
      "좝": 2447,
      "좠": 2448,
      "좡": 2449,
      "좢": 2450,
      "죄": 2451,
      "죈": 2452,
      "죕": 2453,
      "죗": 2454,
      "죙": 2455,
      "죠": 2456,
      "죤": 2457,
      "죨": 2458,
      "죱": 2459,
      "죳": 2460,
      "죴": 2461,
      "죵": 2462,
      "죶": 2463,
      "죷": 2464,
      "죸": 2465,
      "죻": 2466,
      "주": 2467,
      "죽": 2468,
      "준": 2469,
      "줄": 2470,
      "줌": 2471,
      "줍": 2472,
      "줏": 2473,
      "중": 2474,
      "줔": 2475,
      "줗": 2476,
      "줘": 2477,
      "줜": 2478,
      "줠": 2479,
      "줫": 2480,
      "줬": 2481,
      "줭": 2482,
      "줮": 2483,
      "줸": 2484,
      "쥇": 2485,
      "쥐": 2486,
      "쥑": 2487,
      "쥔": 2488,
      "쥘": 2489,
      "쥣": 2490,
      "쥤": 2491,
      "쥬": 2492,
      "쥭": 2493,
      "쥰": 2494,
      "쥴": 2495,
      "쥼": 2496,
      "즁": 2497,
      "즈": 2498,
      "즉": 2499,
      "즌": 2500,
      "즐": 2501,
      "즑": 2502,
      "즘": 2503,
      "즙": 2504,
      "즛": 2505,
      "증": 2506,
      "즞": 2507,
      "즤": 2508,
      "지": 2509,
      "직": 2510,
      "짂": 2511,
      "진": 2512,
      "짅": 2513,
      "짇": 2514,
      "질": 2515,
      "짊": 2516,
      "짋": 2517,
      "짏": 2518,
      "짐": 2519,
      "집": 2520,
      "짓": 2521,
      "징": 2522,
      "짖": 2523,
      "짘": 2524,
      "짙": 2525,
      "짚": 2526,
      "짛": 2527,
      "짜": 2528,
      "짝": 2529,
      "짞": 2530,
      "짠": 2531,
      "짢": 2532,
      "짤": 2533,
      "짦": 2534,
      "짧": 2535,
      "짫": 2536,
      "짬": 2537,
      "짭": 2538,
      "짯": 2539,
      "짰": 2540,
      "짱": 2541,
      "짲": 2542,
      "짴": 2543,
      "째": 2544,
      "짼": 2545,
      "쨈": 2546,
      "쨉": 2547,
      "쨋": 2548,
      "쨌": 2549,
      "쨍": 2550,
      "쨓": 2551,
      "쨔": 2552,
      "쨘": 2553,
      "쨩": 2554,
      "쨰": 2555,
      "쨱": 2556,
      "쩁": 2557,
      "쩃": 2558,
      "쩄": 2559,
      "쩌": 2560,
      "쩍": 2561,
      "쩐": 2562,
      "쩔": 2563,
      "쩖": 2564,
      "쩜": 2565,
      "쩝": 2566,
      "쩡": 2567,
      "쩧": 2568,
      "쩨": 2569,
      "쪄": 2570,
      "쪈": 2571,
      "쪘": 2572,
      "쪙": 2573,
      "쪠": 2574,
      "쪼": 2575,
      "쪽": 2576,
      "쪾": 2577,
      "쫀": 2578,
      "쫄": 2579,
      "쫌": 2580,
      "쫏": 2581,
      "쫑": 2582,
      "쫒": 2583,
      "쫓": 2584,
      "쫗": 2585,
      "쫘": 2586,
      "쫙": 2587,
      "쫭": 2588,
      "쬐": 2589,
      "쬬": 2590,
      "쭁": 2591,
      "쭈": 2592,
      "쭉": 2593,
      "쭊": 2594,
      "쭌": 2595,
      "쭐": 2596,
      "쭘": 2597,
      "쭙": 2598,
      "쭛": 2599,
      "쭝": 2600,
      "쭤": 2601,
      "쮜": 2602,
      "쮯": 2603,
      "쮸": 2604,
      "쯔": 2605,
      "쯗": 2606,
      "쯤": 2607,
      "쯥": 2608,
      "쯧": 2609,
      "쯩": 2610,
      "쯪": 2611,
      "찌": 2612,
      "찍": 2613,
      "찎": 2614,
      "찐": 2615,
      "찔": 2616,
      "찜": 2617,
      "찝": 2618,
      "찟": 2619,
      "찡": 2620,
      "찢": 2621,
      "차": 2622,
      "착": 2623,
      "찬": 2624,
      "찮": 2625,
      "찯": 2626,
      "찰": 2627,
      "찱": 2628,
      "참": 2629,
      "찹": 2630,
      "찻": 2631,
      "찼": 2632,
      "창": 2633,
      "찾": 2634,
      "찿": 2635,
      "챃": 2636,
      "채": 2637,
      "책": 2638,
      "챈": 2639,
      "챌": 2640,
      "챔": 2641,
      "챕": 2642,
      "챗": 2643,
      "챘": 2644,
      "챙": 2645,
      "챠": 2646,
      "챡": 2647,
      "챤": 2648,
      "챦": 2649,
      "챨": 2650,
      "챰": 2651,
      "챵": 2652,
      "처": 2653,
      "척": 2654,
      "천": 2655,
      "철": 2656,
      "첨": 2657,
      "첩": 2658,
      "첫": 2659,
      "첬": 2660,
      "청": 2661,
      "첮": 2662,
      "체": 2663,
      "첵": 2664,
      "첸": 2665,
      "첼": 2666,
      "쳅": 2667,
      "쳇": 2668,
      "쳉": 2669,
      "쳐": 2670,
      "쳔": 2671,
      "쳣": 2672,
      "쳤": 2673,
      "쳥": 2674,
      "쳫": 2675,
      "쳬": 2676,
      "초": 2677,
      "촉": 2678,
      "촌": 2679,
      "촏": 2680,
      "촐": 2681,
      "촘": 2682,
      "촛": 2683,
      "총": 2684,
      "촟": 2685,
      "촣": 2686,
      "촤": 2687,
      "촥": 2688,
      "촬": 2689,
      "촹": 2690,
      "쵁": 2691,
      "최": 2692,
      "쵝": 2693,
      "쵴": 2694,
      "쵸": 2695,
      "쵼": 2696,
      "춋": 2697,
      "춌": 2698,
      "추": 2699,
      "축": 2700,
      "춘": 2701,
      "출": 2702,
      "춤": 2703,
      "춥": 2704,
      "춧": 2705,
      "충": 2706,
      "춫": 2707,
      "춬": 2708,
      "춰": 2709,
      "춴": 2710,
      "춸": 2711,
      "췃": 2712,
      "췄": 2713,
      "췌": 2714,
      "췟": 2715,
      "취": 2716,
      "췬": 2717,
      "츄": 2718,
      "츈": 2719,
      "츔": 2720,
      "츙": 2721,
      "츠": 2722,
      "측": 2723,
      "츤": 2724,
      "츨": 2725,
      "츰": 2726,
      "츳": 2727,
      "층": 2728,
      "츼": 2729,
      "츽": 2730,
      "칀": 2731,
      "치": 2732,
      "칙": 2733,
      "친": 2734,
      "칝": 2735,
      "칠": 2736,
      "침": 2737,
      "칩": 2738,
      "칫": 2739,
      "칭": 2740,
      "칰": 2741,
      "카": 2742,
      "칵": 2743,
      "칸": 2744,
      "칻": 2745,
      "칼": 2746,
      "캄": 2747,
      "캅": 2748,
      "캇": 2749,
      "캉": 2750,
      "캌": 2751,
      "캍": 2752,
      "캐": 2753,
      "캔": 2754,
      "캘": 2755,
      "캠": 2756,
      "캡": 2757,
      "캢": 2758,
      "캣": 2759,
      "캤": 2760,
      "캥": 2761,
      "캬": 2762,
      "캭": 2763,
      "캴": 2764,
      "컁": 2765,
      "컄": 2766,
      "커": 2767,
      "컥": 2768,
      "컨": 2769,
      "컬": 2770,
      "컴": 2771,
      "컵": 2772,
      "컷": 2773,
      "컸": 2774,
      "컹": 2775,
      "컼": 2776,
      "컾": 2777,
      "케": 2778,
      "켁": 2779,
      "켄": 2780,
      "켈": 2781,
      "켐": 2782,
      "켓": 2783,
      "켔": 2784,
      "켕": 2785,
      "켘": 2786,
      "켜": 2787,
      "켠": 2788,
      "켤": 2789,
      "켬": 2790,
      "켯": 2791,
      "켰": 2792,
      "코": 2793,
      "콕": 2794,
      "콘": 2795,
      "콜": 2796,
      "콤": 2797,
      "콥": 2798,
      "콧": 2799,
      "콩": 2800,
      "콬": 2801,
      "콮": 2802,
      "콯": 2803,
      "콰": 2804,
      "콱": 2805,
      "콴": 2806,
      "콸": 2807,
      "쾅": 2808,
      "쾌": 2809,
      "쾡": 2810,
      "쾨": 2811,
      "쿄": 2812,
      "쿈": 2813,
      "쿠": 2814,
      "쿡": 2815,
      "쿤": 2816,
      "쿨": 2817,
      "쿰": 2818,
      "쿳": 2819,
      "쿵": 2820,
      "쿸": 2821,
      "쿼": 2822,
      "퀀": 2823,
      "퀄": 2824,
      "퀘": 2825,
      "퀜": 2826,
      "퀭": 2827,
      "퀴": 2828,
      "퀵": 2829,
      "퀸": 2830,
      "퀼": 2831,
      "큐": 2832,
      "큔": 2833,
      "큘": 2834,
      "크": 2835,
      "큭": 2836,
      "큰": 2837,
      "클": 2838,
      "큼": 2839,
      "큽": 2840,
      "킁": 2841,
      "킄": 2842,
      "킈": 2843,
      "킌": 2844,
      "키": 2845,
      "킥": 2846,
      "킨": 2847,
      "킬": 2848,
      "킴": 2849,
      "킵": 2850,
      "킷": 2851,
      "킹": 2852,
      "킼": 2853,
      "타": 2854,
      "탁": 2855,
      "탄": 2856,
      "탆": 2857,
      "탈": 2858,
      "탉": 2859,
      "탐": 2860,
      "탑": 2861,
      "탓": 2862,
      "탔": 2863,
      "탕": 2864,
      "탗": 2865,
      "태": 2866,
      "택": 2867,
      "탠": 2868,
      "탤": 2869,
      "탬": 2870,
      "탭": 2871,
      "탯": 2872,
      "탰": 2873,
      "탱": 2874,
      "탸": 2875,
      "턀": 2876,
      "터": 2877,
      "턱": 2878,
      "턴": 2879,
      "털": 2880,
      "텀": 2881,
      "텁": 2882,
      "텃": 2883,
      "텅": 2884,
      "텈": 2885,
      "텉": 2886,
      "테": 2887,
      "텍": 2888,
      "텐": 2889,
      "텔": 2890,
      "템": 2891,
      "텝": 2892,
      "텟": 2893,
      "텡": 2894,
      "텨": 2895,
      "텼": 2896,
      "토": 2897,
      "톡": 2898,
      "톤": 2899,
      "톨": 2900,
      "톰": 2901,
      "톱": 2902,
      "통": 2903,
      "톼": 2904,
      "퇄": 2905,
      "퇘": 2906,
      "퇴": 2907,
      "툇": 2908,
      "툥": 2909,
      "투": 2910,
      "툭": 2911,
      "툰": 2912,
      "툴": 2913,
      "툼": 2914,
      "툿": 2915,
      "퉁": 2916,
      "퉜": 2917,
      "퉤": 2918,
      "퉷": 2919,
      "퉽": 2920,
      "튀": 2921,
      "튄": 2922,
      "튈": 2923,
      "튐": 2924,
      "튕": 2925,
      "튜": 2926,
      "튠": 2927,
      "튤": 2928,
      "튬": 2929,
      "튭": 2930,
      "트": 2931,
      "특": 2932,
      "튼": 2933,
      "튿": 2934,
      "틀": 2935,
      "틈": 2936,
      "틋": 2937,
      "틍": 2938,
      "틐": 2939,
      "틑": 2940,
      "틔": 2941,
      "티": 2942,
      "틱": 2943,
      "틴": 2944,
      "틸": 2945,
      "팀": 2946,
      "팁": 2947,
      "팅": 2948,
      "파": 2949,
      "팍": 2950,
      "팎": 2951,
      "판": 2952,
      "팔": 2953,
      "팜": 2954,
      "팝": 2955,
      "팟": 2956,
      "팠": 2957,
      "팡": 2958,
      "팥": 2959,
      "패": 2960,
      "팩": 2961,
      "팬": 2962,
      "팰": 2963,
      "팸": 2964,
      "팻": 2965,
      "팼": 2966,
      "팽": 2967,
      "팾": 2968,
      "퍄": 2969,
      "퍠": 2970,
      "퍼": 2971,
      "퍽": 2972,
      "펀": 2973,
      "펄": 2974,
      "펌": 2975,
      "펏": 2976,
      "펐": 2977,
      "펑": 2978,
      "펔": 2979,
      "페": 2980,
      "펙": 2981,
      "펜": 2982,
      "펠": 2983,
      "펩": 2984,
      "펫": 2985,
      "펭": 2986,
      "펴": 2987,
      "편": 2988,
      "펼": 2989,
      "폄": 2990,
      "폅": 2991,
      "폇": 2992,
      "폈": 2993,
      "평": 2994,
      "폐": 2995,
      "포": 2996,
      "폭": 2997,
      "폰": 2998,
      "폴": 2999,
      "폼": 3000,
      "폽": 3001,
      "폿": 3002,
      "퐁": 3003,
      "퐈": 3004,
      "퐉": 3005,
      "퐌": 3006,
      "퐛": 3007,
      "퐝": 3008,
      "퐠": 3009,
      "푀": 3010,
      "표": 3011,
      "푱": 3012,
      "푸": 3013,
      "푹": 3014,
      "푼": 3015,
      "풀": 3016,
      "품": 3017,
      "풉": 3018,
      "풋": 3019,
      "풍": 3020,
      "풓": 3021,
      "풔": 3022,
      "풕": 3023,
      "풰": 3024,
      "퓌": 3025,
      "퓨": 3026,
      "퓬": 3027,
      "퓰": 3028,
      "퓽": 3029,
      "프": 3030,
      "픈": 3031,
      "플": 3032,
      "픔": 3033,
      "픕": 3034,
      "피": 3035,
      "픽": 3036,
      "핀": 3037,
      "필": 3038,
      "핍": 3039,
      "핏": 3040,
      "핑": 3041,
      "핓": 3042,
      "핕": 3043,
      "하": 3044,
      "학": 3045,
      "핛": 3046,
      "한": 3047,
      "핟": 3048,
      "할": 3049,
      "핡": 3050,
      "핣": 3051,
      "핥": 3052,
      "핦": 3053,
      "핧": 3054,
      "함": 3055,
      "합": 3056,
      "핫": 3057,
      "핬": 3058,
      "항": 3059,
      "핮": 3060,
      "핯": 3061,
      "핰": 3062,
      "핱": 3063,
      "핳": 3064,
      "해": 3065,
      "핵": 3066,
      "핶": 3067,
      "핸": 3068,
      "핻": 3069,
      "핼": 3070,
      "햄": 3071,
      "햅": 3072,
      "햇": 3073,
      "했": 3074,
      "행": 3075,
      "햌": 3076,
      "햏": 3077,
      "햐": 3078,
      "햔": 3079,
      "햣": 3080,
      "햤": 3081,
      "향": 3082,
      "햫": 3083,
      "헀": 3084,
      "허": 3085,
      "헉": 3086,
      "헌": 3087,
      "헏": 3088,
      "헐": 3089,
      "헑": 3090,
      "험": 3091,
      "헙": 3092,
      "헛": 3093,
      "헝": 3094,
      "헠": 3095,
      "헣": 3096,
      "헤": 3097,
      "헥": 3098,
      "헨": 3099,
      "헬": 3100,
      "헴": 3101,
      "헵": 3102,
      "헷": 3103,
      "헸": 3104,
      "헹": 3105,
      "헿": 3106,
      "혀": 3107,
      "혁": 3108,
      "현": 3109,
      "혈": 3110,
      "혐": 3111,
      "협": 3112,
      "혓": 3113,
      "혔": 3114,
      "형": 3115,
      "혖": 3116,
      "혜": 3117,
      "호": 3118,
      "혹": 3119,
      "혼": 3120,
      "홀": 3121,
      "홈": 3122,
      "홉": 3123,
      "홋": 3124,
      "홍": 3125,
      "홐": 3126,
      "홓": 3127,
      "화": 3128,
      "확": 3129,
      "환": 3130,
      "홙": 3131,
      "활": 3132,
      "홥": 3133,
      "홧": 3134,
      "홨": 3135,
      "황": 3136,
      "홪": 3137,
      "홫": 3138,
      "홬": 3139,
      "홯": 3140,
      "홱": 3141,
      "회": 3142,
      "획": 3143,
      "횐": 3144,
      "횔": 3145,
      "횟": 3146,
      "횡": 3147,
      "횤": 3148,
      "효": 3149,
      "횬": 3150,
      "횽": 3151,
      "훃": 3152,
      "후": 3153,
      "훅": 3154,
      "훈": 3155,
      "훋": 3156,
      "훌": 3157,
      "훑": 3158,
      "훓": 3159,
      "훔": 3160,
      "훕": 3161,
      "훗": 3162,
      "훙": 3163,
      "훜": 3164,
      "훟": 3165,
      "훠": 3166,
      "훡": 3167,
      "훤": 3168,
      "훨": 3169,
      "훵": 3170,
      "훸": 3171,
      "훻": 3172,
      "훼": 3173,
      "휏": 3174,
      "휑": 3175,
      "휘": 3176,
      "휙": 3177,
      "휠": 3178,
      "휨": 3179,
      "휩": 3180,
      "휴": 3181,
      "휸": 3182,
      "휼": 3183,
      "흉": 3184,
      "흌": 3185,
      "흏": 3186,
      "흐": 3187,
      "흑": 3188,
      "흔": 3189,
      "흘": 3190,
      "흙": 3191,
      "흝": 3192,
      "흠": 3193,
      "흡": 3194,
      "흣": 3195,
      "흥": 3196,
      "흦": 3197,
      "흨": 3198,
      "흩": 3199,
      "흫": 3200,
      "희": 3201,
      "흰": 3202,
      "흳": 3203,
      "히": 3204,
      "힉": 3205,
      "힌": 3206,
      "힐": 3207,
      "힘": 3208,
      "힙": 3209,
      "힛": 3210,
      "힝": 3211,
      "힞": 3212,
      "힣": 3213,
      "盧": 3214,
      "老": 3215,
      "綠": 3216,
      "不": 3217,
      "禮": 3218,
      "龍": 3219,
      "流": 3220,
      "紐": 3221,
      "律": 3222,
      "慄": 3223,
      "！": 3224,
      "＋": 3225,
      "，": 3226,
      "？": 3227,
      "Ｘ": 3228,
      "＼": 3229,
      "＾": 3230,
      "｀": 3231,
      "～": 3232,
      "￣": 3233,
      "..": 3234,
      "영화": 3235,
      "...": 3236,
      "ㅋㅋ": 3237,
      "!!": 3238,
      "니다": 3239,
      "는데": 3240,
      "너무": 3241,
      "재미": 3242,
      "하고": 3243,
      "....": 3244,
      "정말": 3245,
      "으로": 3246,
      "지만": 3247,
      "네요": 3248,
      "재밌": 3249,
      "하는": 3250,
      "연기": 3251,
      "진짜": 3252,
      "에서": 3253,
      "보고": 3254,
      "\"\"": 3255,
      "최고": 3256,
      "평점": 3257,
      "어요": 3258,
      "생각": 3259,
      "이런": 3260,
      "하다": 3261,
      "보다": 3262,
      "ㅋㅋㅋㅋ": 3263,
      "스토": 3264,
      "이다": 3265,
      "드라": 3266,
      "습니다": 3267,
      "스토리": 3268,
      "드라마": 3269,
      "배우": 3270,
      "~~": 3271,
      "사람": 3272,
      "없는": 3273,
      "감동": 3274,
      "들이": 3275,
      "없다": 3276,
      "하게": 3277,
      "있는": 3278,
      "까지": 3279,
      "아니": 3280,
      "지루": 3281,
      "ㅠㅠ": 3282,
      "내용": 3283,
      "감독": 3284,
      "만들": 3285,
      "이라": 3286,
      "10": 3287,
      "보는": 3288,
      "그냥": 3289,
      "시간": 3290,
      "었다": 3291,
      "영화를": 3292,
      ";;": 3293,
      "??": 3294,
      "재미있": 3295,
      "하나": 3296,
      "영화는": 3297,
      "사랑": 3298,
      "레기": 3299,
      "같은": 3300,
      "해서": 3301,
      "면서": 3302,
      "쓰레기": 3303,
      "영화가": 3304,
      "좋아": 3305,
      "봤는데": 3306,
      "적인": 3307,
      "다시": 3308,
      "나오": 3309,
      "렇게": 3310,
      "좋은": 3311,
      "리고": 3312,
      "하지": 3313,
      "이거": 3314,
      "작품": 3315,
      "이야": 3316,
      ",,": 3317,
      "정도": 3318,
      "^^": 3319,
      "이건": 3320,
      "다는": 3321,
      "ㅎㅎ": 3322,
      "액션": 3323,
      "지막": 3324,
      "마지막": 3325,
      "기대": 3326,
      "으면": 3327,
      "라고": 3328,
      "ㅋㅋㅋ": 3329,
      "내가": 3330,
      "완전": 3331,
      "좋았": 3332,
      "입니다": 3333,
      "최고의": 3334,
      "장면": 3335,
      "들의": 3336,
      "아깝": 3337,
      "한다": 3338,
      "주인": 3339,
      "처음": 3340,
      "없고": 3341,
      "지는": 3342,
      "OO": 3343,
      "지금": 3344,
      "되는": 3345,
      "주인공": 3346,
      "이게": 3347,
      "이렇게": 3348,
      "!!!": 3349,
      "모르": 3350,
      "주는": 3351,
      "했다": 3352,
      "한국": 3353,
      "최악": 3354,
      "하지만": 3355,
      "1점": 3356,
      "이야기": 3357,
      "느낌": 3358,
      "별로": 3359,
      "어서": 3360,
      "10점": 3361,
      "봐도": 3362,
      "이해": 3363,
      "그래": 3364,
      "이상": 3365,
      "아이": 3366,
      "연출": 3367,
      "세요": 3368,
      "있다": 3369,
      "인데": 3370,
      "말이": 3371,
      "적이": 3372,
      "부터": 3373,
      "아까": 3374,
      "들은": 3375,
      "보면": 3376,
      "만든": 3377,
      "!!!!": 3378,
      "나는": 3379,
      "재미없": 3380,
      "명작": 3381,
      "여자": 3382,
      "에게": 3383,
      "역시": 3384,
      "그리고": 3385,
      "ㅡㅡ": 3386,
      "겠다": 3387,
      "우리": 3388,
      "재밌게": 3389,
      "합니다": 3390,
      "기억": 3391,
      "많이": 3392,
      "대로": 3393,
      "적으로": 3394,
      "평점이": 3395,
      "그런": 3396,
      "없이": 3397,
      "라는": 3398,
      "이나": 3399,
      "괜찮": 3400,
      "것도": 3401,
      "아닌": 3402,
      "때문": 3403,
      "보기": 3404,
      "보여": 3405,
      "아름": 3406,
      "가는": 3407,
      "공포": 3408,
      "아깝다": 3409,
      "같다": 3410,
      "마음": 3411,
      "지도": 3412,
      "다른": 3413,
      "현실": 3414,
      "내내": 3415,
      "\"\"\"\"": 3416,
      "다가": 3417,
      "대한": 3418,
      "무슨": 3419,
      "인생": 3420,
      "영화다": 3421,
      "유치": 3422,
      "남자": 3423,
      "일본": 3424,
      "때문에": 3425,
      "리는": 3426,
      "아무": 3427,
      "전개": 3428,
      "볼만": 3429,
      "하면": 3430,
      "다고": 3431,
      "하기": 3432,
      "짜증": 3433,
      "수준": 3434,
      "소재": 3435,
      "반전": 3436,
      "애니": 3437,
      "드는": 3438,
      "않는": 3439,
      "한번": 3440,
      "필요": 3441,
      "만에": 3442,
      "ㅋㅋㅋㅋㅋㅋㅋㅋ": 3443,
      "20": 3444,
      "눈물": 3445,
      "았다": 3446,
      "몰입": 3447,
      "스릴": 3448,
      "음악": 3449,
      "을까": 3450,
      "인간": 3451,
      "인가": 3452,
      "봤다": 3453,
      "영화의": 3454,
      "재밋": 3455,
      "영상": 3456,
      "매력": 3457,
      "주고": 3458,
      "가슴": 3459,
      "가장": 3460,
      "많은": 3461,
      "........": 3462,
      "아서": 3463,
      "싶다": 3464,
      "었는데": 3465,
      "였다": 3466,
      "만들어": 3467,
      "극장": 3468,
      "원작": 3469,
      "ㅜㅜ": 3470,
      "영화에": 3471,
      "다운": 3472,
      "나서": 3473,
      "\"\"\"": 3474,
      "나오는": 3475,
      "보지": 3476,
      "니까": 3477,
      "구나": 3478,
      "여운": 3479,
      "인지": 3480,
      "중에": 3481,
      "나온": 3482,
      "배우들": 3483,
      "미디": 3484,
      "싶은": 3485,
      "스럽": 3486,
      "이제": 3487,
      "솔직": 3488,
      "추천": 3489,
      "코미디": 3490,
      "이고": 3491,
      "했는데": 3492,
      "실망": 3493,
      "않고": 3494,
      "나라": 3495,
      "리즈": 3496,
      "처럼": 3497,
      "아직": 3498,
      "모든": 3499,
      "끝까지": 3500,
      "자체": 3501,
      "릭터": 3502,
      "있었": 3503,
      "대체": 3504,
      "억지": 3505,
      "부분": 3506,
      "대박": 3507,
      "더라": 3508,
      "좋다": 3509,
      "스러": 3510,
      "결말": 3511,
      "아주": 3512,
      "려고": 3513,
      "했던": 3514,
      "지고": 3515,
      "소리": 3516,
      "없음": 3517,
      "수가": 3518,
      "개봉": 3519,
      "대사": 3520,
      "캐릭터": 3521,
      "모두": 3522,
      "것이": 3523,
      "솔직히": 3524,
      "밖에": 3525,
      "나도": 3526,
      "가족": 3527,
      "뭔가": 3528,
      "봐야": 3529,
      "중간": 3530,
      "는지": 3531,
      "메이": 3532,
      "모습": 3533,
      "스트": 3534,
      "연기력": 3535,
      "그래도": 3536,
      "엄청": 3537,
      "건지": 3538,
      "시리즈": 3539,
      "재미없다": 3540,
      "보게": 3541,
      "않은": 3542,
      "전혀": 3543,
      "된다": 3544,
      "계속": 3545,
      "근데": 3546,
      "공감": 3547,
      "에는": 3548,
      "남는": 3549,
      "어떻": 3550,
      "긴장": 3551,
      "표현": 3552,
      "아요": 3553,
      "막장": 3554,
      "이걸": 3555,
      "보다가": 3556,
      "들을": 3557,
      "아니라": 3558,
      "떨어": 3559,
      "대단": 3560,
      "들어": 3561,
      "재밌다": 3562,
      "스터": 3563,
      "나와": 3564,
      "하네요": 3565,
      "연기가": 3566,
      "어떻게": 3567,
      "전에": 3568,
      "제목": 3569,
      ".....": 3570,
      "보이": 3571,
      "최악의": 3572,
      "0년": 3573,
      "다니": 3574,
      "만큼": 3575,
      "해도": 3576,
      "내용이": 3577,
      "진심": 3578,
      "영화로": 3579,
      "그렇": 3580,
      "타임": 3581,
      "있고": 3582,
      "기분": 3583,
      "기도": 3584,
      "그러": 3585,
      "이라는": 3586,
      "만드는": 3587,
      "수록": 3588,
      "었음": 3589,
      "재미있게": 3590,
      "같이": 3591,
      "나왔": 3592,
      "연기도": 3593,
      "아니다": 3594,
      "하면서": 3595,
      "어이": 3596,
      "보면서": 3597,
      "준다": 3598,
      "을때": 3599,
      "알바": 3600,
      "웃기": 3601,
      "아니고": 3602,
      "봤습니다": 3603,
      "하네": 3604,
      "었던": 3605,
      "어디": 3606,
      "자기": 3607,
      "아쉽": 3608,
      "흥미": 3609,
      "해야": 3610,
      "시간이": 3611,
      "잔잔": 3612,
      "스릴러": 3613,
      "난다": 3614,
      "정신": 3615,
      "스타": 3616,
      "친구": 3617,
      "조금": 3618,
      "시대": 3619,
      "이영화": 3620,
      "보니": 3621,
      "이랑": 3622,
      "느껴": 3623,
      "요즘": 3624,
      "내용도": 3625,
      "이지": 3626,
      "작가": 3627,
      "이유": 3628,
      "제작": 3629,
      "부족": 3630,
      "아까운": 3631,
      "영화라고": 3632,
      "아쉬": 3633,
      "하는데": 3634,
      "개인": 3635,
      "안되": 3636,
      "에도": 3637,
      "감독이": 3638,
      "거리": 3639,
      "시나": 3640,
      "긴장감": 3641,
      "노래": 3642,
      "할수": 3643,
      "00": 3644,
      "엔딩": 3645,
      "던데": 3646,
      "라도": 3647,
      "시작": 3648,
      "특히": 3649,
      "재미도": 3650,
      "한테": 3651,
      "어야": 3652,
      "해요": 3653,
      "오랜": 3654,
      "의미": 3655,
      "좋고": 3656,
      "제대로": 3657,
      "무서": 3658,
      "제일": 3659,
      "라리": 3660,
      "것을": 3661,
      "노잼": 3662,
      "아름다운": 3663,
      "나름": 3664,
      "이라고": 3665,
      "~~~": 3666,
      "알았": 3667,
      "리오": 3668,
      "무섭": 3669,
      "사람들": 3670,
      "재밌어요": 3671,
      "당시": 3672,
      "만화": 3673,
      "1편": 3674,
      "만한": 3675,
      "세상": 3676,
      "성이": 3677,
      "스토리가": 3678,
      "차라리": 3679,
      "미국": 3680,
      "뻔한": 3681,
      "웃음": 3682,
      "치는": 3683,
      "영화입니다": 3684,
      "기는": 3685,
      "이란": 3686,
      "인듯": 3687,
      "거지": 3688,
      "ㄷㄷ": 3689,
      "출연": 3690,
      "보세요": 3691,
      "었어요": 3692,
      "영화였": 3693,
      "어설": 3694,
      "기에": 3695,
      "따뜻": 3696,
      "영화중": 3697,
      "감정": 3698,
      "절대": 3699,
      "살아": 3700,
      "으나": 3701,
      "기가": 3702,
      "잼있": 3703,
      "훌륭": 3704,
      "모르겠": 3705,
      "스토리도": 3706,
      "영화라": 3707,
      "장난": 3708,
      "어린": 3709,
      "로맨": 3710,
      "감독의": 3711,
      "전쟁": 3712,
      "강추": 3713,
      "영화도": 3714,
      "느끼": 3715,
      "봤어요": 3716,
      "정도로": 3717,
      "나고": 3718,
      "아직도": 3719,
      "답답": 3720,
      "봤던": 3721,
      "안되는": 3722,
      "한데": 3723,
      "사람이": 3724,
      "리스": 3725,
      "마다": 3726,
      "배우들의": 3727,
      "치고": 3728,
      "좋아하는": 3729,
      "0점": 3730,
      "어도": 3731,
      "ㅉㅉ": 3732,
      "시청": 3733,
      "여운이": 3734,
      "도대체": 3735,
      "무엇": 3736,
      "만들었": 3737,
      "0년대": 3738,
      "진다": 3739,
      "그저": 3740,
      "자신": 3741,
      "라이": 3742,
      "수작": 3743,
      "관객": 3744,
      "들도": 3745,
      "동안": 3746,
      "본다": 3747,
      "신선": 3748,
      "얼마": 3749,
      "못한": 3750,
      "초반": 3751,
      "행복": 3752,
      "사실": 3753,
      "슬프": 3754,
      "레이": 3755,
      "감동적이": 3756,
      "마지막에": 3757,
      "허접": 3758,
      "역사": 3759,
      "배경": 3760,
      "언제": 3761,
      "가지": 3762,
      "돌아": 3763,
      "시절": 3764,
      "좋았다": 3765,
      "괜찮은": 3766,
      "듯한": 3767,
      "~~~~": 3768,
      "군요": 3769,
      "생각이": 3770,
      "더니": 3771,
      "다큐": 3772,
      "말고": 3773,
      "보는내내": 3774,
      "우리나라": 3775,
      "시나리오": 3776,
      "스러운": 3777,
      "스팅": 3778,
      "어색": 3779,
      "점수": 3780,
      "프로": 3781,
      "멋진": 3782,
      "설정": 3783,
      "나올": 3784,
      "소름": 3785,
      "오늘": 3786,
      "이네": 3787,
      "OOO": 3788,
      "오랜만에": 3789,
      "인물": 3790,
      "분위": 3791,
      "문제": 3792,
      "에요": 3793,
      "추억": 3794,
      "이해가": 3795,
      "기를": 3796,
      "1점도": 3797,
      "킬링": 3798,
      "로운": 3799,
      "으로도": 3800,
      "리가": 3801,
      "하시": 3802,
      "학교": 3803,
      "같아요": 3804,
      "캐스팅": 3805,
      "마라": 3806,
      "영화관": 3807,
      "재미가": 3808,
      "지루함": 3809,
      "좋아요": 3810,
      "없어": 3811,
      "인상": 3812,
      "나이": 3813,
      "최고다": 3814,
      "나요": 3815,
      "않았": 3816,
      "연기는": 3817,
      "졸작": 3818,
      "했지만": 3819,
      "지루하고": 3820,
      "♥♥": 3821,
      "결국": 3822,
      "엄마": 3823,
      "봐서": 3824,
      "리지": 3825,
      "어떤": 3826,
      "안타": 3827,
      "이딴": 3828,
      "나게": 3829,
      "사회": 3830,
      "제발": 3831,
      "주연": 3832,
      "함께": 3833,
      "따라": 3834,
      "재밌는": 3835,
      "완벽": 3836,
      "위해": 3837,
      "메이션": 3838,
      "지루한": 3839,
      "건가": 3840,
      "개인적으로": 3841,
      "가서": 3842,
      "이리": 3843,
      "더빙": 3844,
      "지지": 3845,
      "???": 3846,
      "볼수": 3847,
      "네이": 3848,
      "힘들": 3849,
      "아무리": 3850,
      "오래": 3851,
      "포스터": 3852,
      "후회": 3853,
      "코믹": 3854,
      "알고": 3855,
      "재밌음": 3856,
      "성도": 3857,
      "한거": 3858,
      "어릴": 3859,
      "평가": 3860,
      ";;;": 3861,
      "그렇게": 3862,
      "예술": 3863,
      "보단": 3864,
      "찾아": 3865,
      "는거": 3866,
      "애니메이션": 3867,
      "유쾌": 3868,
      "진부": 3869,
      "oo": 3870,
      "방송": 3871,
      "인이": 3872,
      "아름답": 3873,
      "하나도": 3874,
      "얼마나": 3875,
      "지루하다": 3876,
      "ㅠㅠㅠㅠ": 3877,
      "킬링타임": 3878,
      "디오": 3879,
      "진정": 3880,
      "같은데": 3881,
      "개연": 3882,
      "것은": 3883,
      "주제": 3884,
      "어울": 3885,
      "구만": 3886,
      "티비": 3887,
      ",,,": 3888,
      "이네요": 3889,
      "했음": 3890,
      "극장에서": 3891,
      "하며": 3892,
      "놓고": 3893,
      "말도": 3894,
      "후반": 3895,
      "분들": 3896,
      "었습니다": 3897,
      "지가": 3898,
      "있을": 3899,
      "갈수록": 3900,
      "충격": 3901,
      "럽게": 3902,
      "세계": 3903,
      "옛날": 3904,
      "기억에": 3905,
      "몰입도": 3906,
      "그만": 3907,
      "아버": 3908,
      "이름": 3909,
      "이쁘": 3910,
      "봐라": 3911,
      "오글": 3912,
      "여러": 3913,
      "얼굴": 3914,
      "주의": 3915,
      "는게": 3916,
      "빠져": 3917,
      "영화임": 3918,
      "영화네요": 3919,
      "그나": 3920,
      "미친": 3921,
      "보시": 3922,
      "애들": 3923,
      "점대": 3924,
      "기다": 3925,
      "보았": 3926,
      "~!": 3927,
      "궁금": 3928,
      "점이": 3929,
      "느낌이": 3930,
      "해주": 3931,
      "불쌍": 3932,
      "않는다": 3933,
      "낭비": 3934,
      "보는데": 3935,
      "잔인": 3936,
      "모르겠다": 3937,
      "되어": 3938,
      "장르": 3939,
      "텐데": 3940,
      "버린": 3941,
      "중국": 3942,
      "비디오": 3943,
      "어느": 3944,
      "마디": 3945,
      "구요": 3946,
      "비슷": 3947,
      "위한": 3948,
      "충분": 3949,
      "이후": 3950,
      "그래서": 3951,
      "집중": 3952,
      "여기": 3953,
      "아님": 3954,
      "2편": 3955,
      "매우": 3956,
      "이가": 3957,
      "너무나": 3958,
      "이어": 3959,
      "시키": 3960,
      "인줄": 3961,
      "상황": 3962,
      "순수": 3963,
      "있는데": 3964,
      "보고싶": 3965,
      "하하": 3966,
      "없네": 3967,
      "을듯": 3968,
      "있어": 3969,
      "사람들이": 3970,
      "지나": 3971,
      "19": 3972,
      "뛰어": 3973,
      "시즌": 3974,
      "이는": 3975,
      "재미없음": 3976,
      "다음": 3977,
      "없었다": 3978,
      "머리": 3979,
      "여주인공": 3980,
      "내용은": 3981,
      "보지마": 3982,
      "길래": 3983,
      "것이다": 3984,
      "는다": 3985,
      "상상": 3986,
      "눈물이": 3987,
      "마음이": 3988,
      "!!!!!!!!": 3989,
      "당히": 3990,
      "st": 3991,
      "연기를": 3992,
      "감동도": 3993,
      "걸작": 3994,
      "려는": 3995,
      "감사": 3996,
      "바로": 3997,
      "엉성": 3998,
      "이지만": 3999,
      "않다": 4000,
      "학생": 4001,
      "그리": 4002,
      "렸다": 4003,
      "봤음": 4004,
      "영화인데": 4005,
      "되고": 4006,
      "약간": 4007,
      "그나마": 4008,
      "대해": 4009,
      "나와서": 4010,
      "실화": 4011,
      "로맨스": 4012,
      "CG": 4013,
      "웠다": 4014,
      "이미": 4015,
      "있음": 4016,
      "소설": 4017,
      "기억이": 4018,
      "한마디": 4019,
      "존나": 4020,
      "장면이": 4021,
      "영상미": 4022,
      "누가": 4023,
      "순간": 4024,
      "없어서": 4025,
      "같음": 4026,
      "해라": 4027,
      "그대로": 4028,
      "봤지만": 4029,
      "훨씬": 4030,
      "있어서": 4031,
      "감동이": 4032,
      "적이고": 4033,
      "전체": 4034,
      "별점": 4035,
      "비교": 4036,
      "성을": 4037,
      "꿀잼": 4038,
      "가고": 4039,
      "아까워": 4040,
      "가슴이": 4041,
      "2점": 4042,
      "간다": 4043,
      "만점": 4044,
      "결말이": 4045,
      "초딩": 4046,
      "보다는": 4047,
      "영화였다": 4048,
      "뭐야": 4049,
      "가지고": 4050,
      "재밌고": 4051,
      "함을": 4052,
      "배우들이": 4053,
      "자체가": 4054,
      "좋겠": 4055,
      "사람은": 4056,
      "다르": 4057,
      "혼자": 4058,
      "짜리": 4059,
      "거의": 4060,
      "하는거": 4061,
      "이라도": 4062,
      "들과": 4063,
      "이하": 4064,
      "네이버": 4065,
      "귀엽": 4066,
      "사이": 4067,
      "마이": 4068,
      "자연": 4069,
      "제가": 4070,
      "굉장": 4071,
      "단순": 4072,
      "......": 4073,
      "B급": 4074,
      "있었다": 4075,
      "????": 4076,
      "보여주는": 4077,
      "이래": 4078,
      "구성": 4079,
      "해지는": 4080,
      "속에": 4081,
      "판타": 4082,
      "만드": 4083,
      "중간에": 4084,
      "간만에": 4085,
      "200": 4086,
      "높은": 4087,
      "두번": 4088,
      "감독님": 4089,
      "이정도": 4090,
      "력이": 4091,
      "귀여": 4092,
      "있을까": 4093,
      "평론": 4094,
      "생각을": 4095,
      "공포영화": 4096,
      "등장": 4097,
      "있지만": 4098,
      "할때": 4099,
      "다들": 4100,
      "맘에": 4101,
      "나의": 4102,
      "으니": 4103,
      "들에게": 4104,
      "일이": 4105,
      "영화관에서": 4106,
      "뭐지": 4107,
      "빨리": 4108,
      "알게": 4109,
      "어렸": 4110,
      "있게": 4111,
      "스토리는": 4112,
      "화려": 4113,
      "아까움": 4114,
      "3류": 4115,
      "어설픈": 4116,
      "성룡": 4117,
      "하자": 4118,
      "느낄": 4119,
      "당신": 4120,
      "이러": 4121,
      "0분": 4122,
      "멜로": 4123,
      "기만": 4124,
      "저도": 4125,
      "좋은데": 4126,
      "삼류": 4127,
      "이었다": 4128,
      "받아": 4129,
      "재미있어요": 4130,
      "낮은": 4131,
      "머니": 4132,
      "함이": 4133,
      "감이": 4134,
      "개도": 4135,
      "케이": 4136,
      "감동적인": 4137,
      "가치": 4138,
      "개그": 4139,
      "건데": 4140,
      "발연기": 4141,
      "안하고": 4142,
      "해주는": 4143,
      "가능": 4144,
      "배우가": 4145,
      "나온다": 4146,
      "스럽다": 4147,
      "거야": 4148,
      "교훈": 4149,
      "질질": 4150,
      "겠지": 4151,
      "킬링타임용": 4152,
      "잘못": 4153,
      "여주": 4154,
      "지를": 4155,
      "허무": 4156,
      "잔잔한": 4157,
      "ㅇㅇ": 4158,
      "화가": 4159,
      "겠지만": 4160,
      "존재": 4161,
      "이라면": 4162,
      "볼만한": 4163,
      "성우": 4164,
      "아쉽다": 4165,
      "쓰레기영화": 4166,
      "ood": 4167,
      "든다": 4168,
      "전부": 4169,
      "린다": 4170,
      "저런": 4171,
      "살인": 4172,
      "ㅎㅎㅎ": 4173,
      "끝나": 4174,
      "르는": 4175,
      "뭐냐": 4176,
      "재미있는": 4177,
      "각본": 4178,
      "어른": 4179,
      "너무너무": 4180,
      "독특": 4181,
      "생각보다": 4182,
      "려서": 4183,
      "에로": 4184,
      "재미는": 4185,
      "상영": 4186,
      "수도": 4187,
      "재미없는": 4188,
      "평점을": 4189,
      "연히": 4190,
      "진정한": 4191,
      "라서": 4192,
      "아닌가": 4193,
      "빼고": 4194,
      "사람들은": 4195,
      "목소리": 4196,
      "적이다": 4197,
      "몇번": 4198,
      "좀비": 4199,
      "10년": 4200,
      "상당히": 4201,
      "어쩌": 4202,
      "재미있다": 4203,
      "감동을": 4204,
      "더욱": 4205,
      "얘기": 4206,
      "되지": 4207,
      "으면서": 4208,
      "ㅋㅋㅋㅋㅋ": 4209,
      "같네요": 4210,
      "관람": 4211,
      "이영화를": 4212,
      "잖아": 4213,
      "때마다": 4214,
      "못하는": 4215,
      "마음에": 4216,
      "자가": 4217,
      "TV": 4218,
      "믿고": 4219,
      "의도": 4220,
      ";;;;": 4221,
      "이번": 4222,
      "보이는": 4223,
      "슬픈": 4224,
      "평론가": 4225,
      "재밌네요": 4226,
      "있다는": 4227,
      "주인공이": 4228,
      "er": 4229,
      "관계": 4230,
      "땜에": 4231,
      "이것": 4232,
      "시청률": 4233,
      "실제": 4234,
      "졌다": 4235,
      "한국영화": 4236,
      "아름다": 4237,
      "예상": 4238,
      "점은": 4239,
      "예쁘": 4240,
      "하냐": 4241,
      "그러나": 4242,
      "굉장히": 4243,
      "스가": 4244,
      "정이": 4245,
      "이팅": 4246,
      "사는": 4247,
      "라면": 4248,
      "한편": 4249,
      "괜찮았": 4250,
      "그런지": 4251,
      "ㅋㅋㅋㅋㅋㅋㅋㅋㅋㅋㅋㅋㅋㅋㅋㅋ": 4252,
      "갑자기": 4253,
      "없네요": 4254,
      "인의": 4255,
      "전개가": 4256,
      ",.": 4257,
      "극장판": 4258,
      "아프": 4259,
      "같아": 4260,
      "화면": 4261,
      "영화에서": 4262,
      "그녀": 4263,
      "프랑": 4264,
      "스타일": 4265,
      "말로": 4266,
      "비해": 4267,
      "요소": 4268,
      "워서": 4269,
      "보여주": 4270,
      "누구": 4271,
      "했어요": 4272,
      "중요": 4273,
      "거나": 4274,
      "좋음": 4275,
      "한영화": 4276,
      "무리": 4277,
      "저는": 4278,
      "생각하게": 4279,
      "tv": 4280,
      "하니": 4281,
      "ㅠㅠㅠ": 4282,
      "봤네요": 4283,
      "아빠": 4284,
      "줄거리": 4285,
      "만족": 4286,
      "예고": 4287,
      "확실": 4288,
      "아버지": 4289,
      "멋지": 4290,
      "뭐가": 4291,
      "좋네요": 4292,
      "항상": 4293,
      "범죄": 4294,
      "야지": 4295,
      "만들었다": 4296,
      "어디서": 4297,
      "해준": 4298,
      "영화보다": 4299,
      "선택": 4300,
      "수를": 4301,
      "었고": 4302,
      "조차": 4303,
      "먹고": 4304,
      "12": 4305,
      "하여": 4306,
      "있어요": 4307,
      "흥행": 4308,
      "훌륭한": 4309,
      "그때": 4310,
      "나오고": 4311,
      "불편": 4312,
      "참고": 4313,
      "탄탄": 4314,
      "평범": 4315,
      "댓글": 4316,
      "없을": 4317,
      "진행": 4318,
      "하는지": 4319,
      "거다": 4320,
      "일단": 4321,
      "장면은": 4322,
      "판타지": 4323,
      "감독은": 4324,
      "모르고": 4325,
      "................": 4326,
      "원작을": 4327,
      "분위기": 4328,
      "나옴": 4329,
      "년도": 4330,
      "하는게": 4331,
      "나가": 4332,
      "즐거": 4333,
      "보는게": 4334,
      "아닐": 4335,
      "새로운": 4336,
      "싫어": 4337,
      "한심": 4338,
      "처음부터": 4339,
      "나쁜": 4340,
      "여서": 4341,
      "하던": 4342,
      "리얼": 4343,
      "망작": 4344,
      "시다": 4345,
      "한마디로": 4346,
      "을텐데": 4347,
      "15": 4348,
      "감성": 4349,
      "더럽게": 4350,
      "점점": 4351,
      "편집": 4352,
      "것만": 4353,
      "영화인": 4354,
      "에서도": 4355,
      "안타깝": 4356,
      "굿굿": 4357,
      "따위": 4358,
      "맞는": 4359,
      "생각해": 4360,
      "몰랐": 4361,
      "사건": 4362,
      "역대": 4363,
      "예요": 4364,
      "죽는": 4365,
      "했습니다": 4366,
      "대단한": 4367,
      "깊은": 4368,
      "리를": 4369,
      "짱짱": 4370,
      "돈주고": 4371,
      "그림": 4372,
      "이영화는": 4373,
      "프랑스": 4374,
      "바라": 4375,
      "평점은": 4376,
      "개연성": 4377,
      "충분히": 4378,
      "귀신": 4379,
      "이라니": 4380,
      "~!!": 4381,
      "게임": 4382,
      "당한": 4383,
      "지않": 4384,
      "메디": 4385,
      "물론": 4386,
      "저히": 4387,
      "좋겠다": 4388,
      "카메": 4389,
      "끝내": 4390,
      "하긴": 4391,
      "사랑을": 4392,
      "말아": 4393,
      "인다": 4394,
      "자꾸": 4395,
      "부분이": 4396,
      "식상": 4397,
      "였음": 4398,
      "한다는": 4399,
      "했고": 4400,
      "알아": 4401,
      "다시봐도": 4402,
      "감상": 4403,
      "병맛": 4404,
      "에겐": 4405,
      "good": 4406,
      "어쩔": 4407,
      "원래": 4408,
      "진실": 4409,
      "전형": 4410,
      "힘든": 4411,
      "알았는데": 4412,
      "엉망": 4413,
      "조건": 4414,
      "화이팅": 4415,
      "결혼": 4416,
      "아는": 4417,
      "알았다": 4418,
      "바람": 4419,
      "웃겨": 4420,
      "9점": 4421,
      "라니": 4422,
      "에선": 4423,
      "영웅": 4424,
      "오는": 4425,
      "풀어": 4426,
      "리의": 4427,
      "안된다": 4428,
      ",,,,": 4429,
      "미안": 4430,
      "새끼": 4431,
      "우는": 4432,
      "우드": 4433,
      "중반": 4434,
      "보고싶은": 4435,
      "3점": 4436,
      "리티": 4437,
      "여배우": 4438,
      "자극": 4439,
      "진진": 4440,
      "홍콩": 4441,
      "훈훈": 4442,
      "내는": 4443,
      "어려": 4444,
      "었지만": 4445,
      "코메디": 4446,
      "그래픽": 4447,
      "스럽고": 4448,
      "오글거": 4449,
      "두고": 4450,
      "유의": 4451,
      "이것도": 4452,
      "재밌어": 4453,
      "그게": 4454,
      "드립": 4455,
      "웃긴": 4456,
      "인간의": 4457,
      "을수": 4458,
      "진지": 4459,
      "재밌는데": 4460,
      "하지도": 4461,
      "안타까": 4462,
      "헐리": 4463,
      "어릴때": 4464,
      "그닥": 4465,
      "소년": 4466,
      "속편": 4467,
      "이기": 4468,
      "죽음": 4469,
      "100": 4470,
      "지금까지": 4471,
      "무비": 4472,
      "영화중에": 4473,
      "재미없어": 4474,
      "또한": 4475,
      "별루": 4476,
      "애들이": 4477,
      "했으면": 4478,
      "것같다": 4479,
      "--": 4480,
      "사라": 4481,
      "스의": 4482,
      "신기": 4483,
      "워요": 4484,
      "이면": 4485,
      "할까": 4486,
      "민국": 4487,
      "스케": 4488,
      "재밌었다": 4489,
      "이런영화": 4490,
      "미화": 4491,
      "만들지": 4492,
      "도록": 4493,
      "무서운": 4494,
      "일까": 4495,
      "들아": 4496,
      "불륜": 4497,
      "천재": 4498,
      "취향": 4499,
      "효과": 4500,
      "드라마가": 4501,
      "낫다": 4502,
      "엄청난": 4503,
      "in": 4504,
      "내고": 4505,
      "동화": 4506,
      "영환": 4507,
      "크리스": 4508,
      "하겠": 4509,
      "으며": 4510,
      "평점에": 4511,
      "아쉬운": 4512,
      "경찰": 4513,
      "아오": 4514,
      "좋았어요": 4515,
      "후반부": 4516,
      "대작": 4517,
      "설명": 4518,
      "소녀": 4519,
      "따뜻한": 4520,
      "예고편": 4521,
      "여전": 4522,
      "저질": 4523,
      "지루해": 4524,
      "흥미진진": 4525,
      "괜히": 4526,
      "먹먹": 4527,
      "참신": 4528,
      "에서는": 4529,
      "못하고": 4530,
      "있네": 4531,
      "보고싶다": 4532,
      "기대하고": 4533,
      "나면": 4534,
      "복수": 4535,
      "봣는데": 4536,
      "되었다": 4537,
      "한게": 4538,
      "ost": 4539,
      "그의": 4540,
      "노출": 4541,
      "독립": 4542,
      "무지": 4543,
      "무조건": 4544,
      "알려": 4545,
      "액션도": 4546,
      "대한민국": 4547,
      "같습니다": 4548,
      "그랬": 4549,
      "다면": 4550,
      "돈이": 4551,
      "만의": 4552,
      "멍청": 4553,
      "있나": 4554,
      "보고나서": 4555,
      "이야기를": 4556,
      "더러": 4557,
      "말을": 4558,
      "초등": 4559,
      "8점": 4560,
      "소중": 4561,
      "히려": 4562,
      "예산": 4563,
      "예전에": 4564,
      "전달": 4565,
      "이런거": 4566,
      "모르는": 4567,
      "나쁘": 4568,
      "바보": 4569,
      "전문": 4570,
      "도저히": 4571,
      "서로": 4572,
      "아저": 4573,
      "오히려": 4574,
      "있습니다": 4575,
      "전설": 4576,
      "조연": 4577,
      ".......": 4578,
      "관심": 4579,
      "분명": 4580,
      "로맨틱": 4581,
      "보자": 4582,
      "속에서": 4583,
      "유머": 4584,
      "전편": 4585,
      "\"\"\"\"\"\"\"": 4586,
      "걸까": 4587,
      "남아": 4588,
      "촬영": 4589,
      "모습이": 4590,
      "희망": 4591,
      "아저씨": 4592,
      "그럴": 4593,
      "넘어": 4594,
      "자의": 4595,
      "드라마를": 4596,
      "우연히": 4597,
      "이냐": 4598,
      "억지로": 4599,
      "동생": 4600,
      "부모": 4601,
      "사가": 4602,
      "최근": 4603,
      "났다": 4604,
      "느꼈": 4605,
      "만이": 4606,
      "완벽한": 4607,
      "돌려": 4608,
      "전기": 4609,
      "받았": 4610,
      "안됨": 4611,
      "싶어": 4612,
      "하다고": 4613,
      "가볍": 4614,
      "다행": 4615,
      "내인생": 4616,
      "년이": 4617,
      "들고": 4618,
      "앞으로": 4619,
      "환상": 4620,
      "리게": 4621,
      "아나": 4622,
      "잊혀": 4623,
      "재미없고": 4624,
      "SF": 4625,
      "비추": 4626,
      "일어": 4627,
      "특유의": 4628,
      "//": 4629,
      "말하고": 4630,
      "메세": 4631,
      "않음": 4632,
      "오빠": 4633,
      "완성도": 4634,
      "유명": 4635,
      "지루하지": 4636,
      "재미있고": 4637,
      "느끼게": 4638,
      "스포": 4639,
      "잘생": 4640,
      "흘러": 4641,
      "어설프": 4642,
      "인거": 4643,
      "연기자": 4644,
      "아이들이": 4645,
      "그런데": 4646,
      "아무것도": 4647,
      "살다": 4648,
      "스런": 4649,
      "유치한": 4650,
      "놓은": 4651,
      "현재": 4652,
      "있었던": 4653,
      "cg": 4654,
      "그램": 4655,
      "었으면": 4656,
      "작품이": 4657,
      "비슷한": 4658,
      "아마": 4659,
      "영원": 4660,
      "왜이리": 4661,
      "즐겁": 4662,
      "지금도": 4663,
      "우울": 4664,
      "이상한": 4665,
      "4점": 4666,
      "성장": 4667,
      "문화": 4668,
      "외로": 4669,
      "행동": 4670,
      "스토리에": 4671,
      "아니면": 4672,
      "연출력": 4673,
      "메이크": 4674,
      "th": 4675,
      "가득": 4676,
      "인정": 4677,
      "드라마는": 4678,
      "인도": 4679,
      "이야기가": 4680,
      "전형적인": 4681,
      "90년대": 4682,
      "먼저": 4683,
      "전작": 4684,
      "청춘": 4685,
      "처음으로": 4686,
      "연출이": 4687,
      "같아서": 4688,
      "능력": 4689,
      "여자가": 4690,
      "7점": 4691,
      "그럼": 4692,
      "노력": 4693,
      "그렇고": 4694,
      "14": 4695,
      "프로그램": 4696,
      "시도": 4697,
      "시켜": 4698,
      "짜증나": 4699,
      "시원": 4700,
      "해피": 4701,
      "뜬금": 4702,
      "실패": 4703,
      "시간낭비": 4704,
      "대의": 4705,
      "던가": 4706,
      "랄까": 4707,
      "리메이크": 4708,
      "밑에": 4709,
      "였는데": 4710,
      "잘봤습니다": 4711,
      "좋은영화": 4712,
      "모습을": 4713,
      "영화였습니다": 4714,
      "보시길": 4715,
      "과거": 4716,
      "끝나고": 4717,
      "누군": 4718,
      "마세요": 4719,
      "안에": 4720,
      "무엇보다": 4721,
      "어렸을때": 4722,
      "못할": 4723,
      "뭔지": 4724,
      "스를": 4725,
      "주세요": 4726,
      "보여준": 4727,
      "아쉬움": 4728,
      "못보": 4729,
      "감동적": 4730,
      "OOO기": 4731,
      "아아": 4732,
      "어로": 4733,
      "함과": 4734,
      "허술": 4735,
      "영화이다": 4736,
      "나만": 4737,
      "다만": 4738,
      "않을": 4739,
      "하루": 4740,
      "영화지만": 4741,
      "이런걸": 4742,
      "사람을": 4743,
      "마음을": 4744,
      "반전이": 4745,
      "그려": 4746,
      "기고": 4747,
      "놀라": 4748,
      "대가": 4749,
      "ST": 4750,
      "고생": 4751,
      "선생": 4752,
      "어렵": 4753,
      "역할": 4754,
      "있지": 4755,
      "철학": 4756,
      "피해": 4757,
      "하세요": 4758,
      "유치하고": 4759,
      "이젠": 4760,
      "지난": 4761,
      "하려": 4762,
      "성공": 4763,
      "심리": 4764,
      "화려한": 4765,
      "님의": 4766,
      "러브": 4767,
      "미스": 4768,
      "여성": 4769,
      "좋았고": 4770,
      "부족한": 4771,
      "안되고": 4772,
      "보지마세요": 4773,
      "3편": 4774,
      "80년대": 4775,
      "년전": 4776,
      "졸라": 4777,
      "내용을": 4778,
      "좋았습니다": 4779,
      "명작이다": 4780,
      "아닌데": 4781,
      "제작비": 4782,
      "되게": 4783,
      "만으로도": 4784,
      "보니까": 4785,
      "않았다": 4786,
      "재밌었어요": 4787,
      "하나하나": 4788,
      "최악이다": 4789,
      "심히": 4790,
      "왠지": 4791,
      "잘만든": 4792,
      "좋았음": 4793,
      "눈이": 4794,
      "데이": 4795,
      "있네요": 4796,
      "나를": 4797,
      "마치": 4798,
      "미래": 4799,
      "스크": 4800,
      "채널": 4801,
      "연기에": 4802,
      "아니지만": 4803,
      "보인다": 4804,
      "사극": 4805,
      "와서": 4806,
      "별로다": 4807,
      "보러": 4808,
      "알겠": 4809,
      "웠던": 4810,
      "표정": 4811,
      "나왔으면": 4812,
      "하면서도": 4813,
      "5점": 4814,
      "같고": 4815,
      "끌어": 4816,
      "나에게": 4817,
      "년에": 4818,
      "님이": 4819,
      "식이": 4820,
      "남주": 4821,
      "파이": 4822,
      "생각없이": 4823,
      "하다가": 4824,
      "사랑이": 4825,
      "진부한": 4826,
      "아닐까": 4827,
      "ㅅㅂ": 4828,
      "배우의": 4829,
      "대단하다": 4830,
      "드러": 4831,
      "어찌": 4832,
      "재밋게": 4833,
      "됩니다": 4834,
      "삶을": 4835,
      "자유": 4836,
      "드립니다": 4837,
      "봤으면": 4838,
      "싫다": 4839,
      "이연": 4840,
      "저예산": 4841,
      "호러": 4842,
      "감사합니다": 4843,
      "카메라": 4844,
      "않아": 4845,
      "이영화가": 4846,
      "주인공의": 4847,
      "가끔": 4848,
      "거냐": 4849,
      "나머": 4850,
      "네여": 4851,
      "더군요": 4852,
      "무시": 4853,
      "미치": 4854,
      "세가": 4855,
      "알수": 4856,
      "필요없다": 4857,
      "슬프다": 4858,
      "귀여운": 4859,
      "올라": 4860,
      "왜이렇게": 4861,
      "자는": 4862,
      "정치": 4863,
      "있다면": 4864,
      "그런가": 4865,
      "리다": 4866,
      "버리고": 4867,
      "아놔": 4868,
      "없나": 4869,
      "외국": 4870,
      "이도": 4871,
      "태어": 4872,
      "너무나도": 4873,
      "시간을": 4874,
      "필요한": 4875,
      "전체적으로": 4876,
      "케이블": 4877,
      "떨어지는": 4878,
      "가진": 4879,
      "만하면": 4880,
      "봅니다": 4881,
      "줘야": 4882,
      "했을": 4883,
      "소재는": 4884,
      "먹는": 4885,
      "영화냐": 4886,
      "세상에": 4887,
      "받고": 4888,
      "스로": 4889,
      "황당": 4890,
      "이런게": 4891,
      "한다면": 4892,
      "그라": 4893,
      "눈을": 4894,
      "싸이": 4895,
      "?)": 4896,
      "소한": 4897,
      "액션이": 4898,
      "OST": 4899,
      "드가": 4900,
      "없지만": 4901,
      "였습니다": 4902,
      "했다는": 4903,
      "자신의": 4904,
      "시고": 4905,
      "식으로": 4906,
      "연애": 4907,
      "평생": 4908,
      "스토리를": 4909,
      "or": 4910,
      "심심": 4911,
      "재미있음": 4912,
      "보기엔": 4913,
      "감을": 4914,
      "메시": 4915,
      "좋았는데": 4916,
      "지금봐도": 4917,
      "이유가": 4918,
      "대충": 4919,
      "구려": 4920,
      "느낀": 4921,
      "생애": 4922,
      "지게": 4923,
      "~^^": 4924,
      "버렸다": 4925,
      "봤었는데": 4926,
      "아들": 4927,
      "자를": 4928,
      "찍은": 4929,
      "깊게": 4930,
      "받은": 4931,
      "볼때마다": 4932,
      "였던": 4933,
      "감동적이고": 4934,
      "허접한": 4935,
      "리아": 4936,
      "와닿": 4937,
      "정의": 4938,
      "제작진": 4939,
      "an": 4940,
      "미소": 4941,
      "신이": 4942,
      "소재를": 4943,
      "필요없는": 4944,
      "매력적인": 4945,
      "남는다": 4946,
      "광고": 4947,
      "이에요": 4948,
      "스토리와": 4949,
      "걸로": 4950,
      "다소": 4951,
      "젊은": 4952,
      "한듯": 4953,
      "느껴지는": 4954,
      "확실히": 4955,
      "괴물": 4956,
      "동물": 4957,
      "일상": 4958,
      "종교": 4959,
      "예전": 4960,
      "자막": 4961,
      "할듯": 4962,
      "수준이": 4963,
      "티비에서": 4964,
      "리뷰": 4965,
      "볼수록": 4966,
      "스티": 4967,
      "액션은": 4968,
      "음악이": 4969,
      "감탄": 4970,
      "못해": 4971,
      "번째": 4972,
      "봤다가": 4973,
      "뿐이다": 4974,
      "한건": 4975,
      "어이가": 4976,
      "13": 4977,
      "고민": 4978,
      "블랙": 4979,
      "언니": 4980,
      "예쁜": 4981,
      "커플": 4982,
      "감정이": 4983,
      "11": 4984,
      "마무리": 4985,
      "뮤지": 4986,
      "시길": 4987,
      "여행": 4988,
      "인은": 4989,
      "처음이다": 4990,
      "어이없는": 4991,
      "가면": 4992,
      "결론": 4993,
      "슬픔": 4994,
      "주기도": 4995,
      "사람의": 4996,
      "역시나": 4997,
      "나타": 4998,
      "분에": 4999,
      "폭력": 5000,
      "영화보고": 5001,
      "남을": 5002,
      "로그": 5003,
      "아침": 5004,
      "있으면": 5005,
      "하려는": 5006,
      "연기와": 5007,
      "음악도": 5008,
      "분들은": 5009,
      "성애": 5010,
      "제로": 5011,
      "포장": 5012,
      "한지": 5013,
      "..?": 5014,
      "만들고": 5015,
      "기분이": 5016,
      "노답": 5017,
      "사기": 5018,
      "손발": 5019,
      "어가": 5020,
      "이를": 5021,
      "시간에": 5022,
      "만들어진": 5023,
      "국민": 5024,
      "올리": 5025,
      "유일": 5026,
      "인을": 5027,
      "한계": 5028,
      "기대를": 5029,
      "bb": 5030,
      "내요": 5031,
      "르고": 5032,
      "발견": 5033,
      "점을": 5034,
      "어색한": 5035,
      "모자": 5036,
      "무협": 5037,
      "버렸": 5038,
      "웃김": 5039,
      "절한": 5040,
      "흐름": 5041,
      "사랑과": 5042,
      "겁나": 5043,
      "보긴": 5044,
      "불가": 5045,
      "슈퍼": 5046,
      "오락": 5047,
      "조폭": 5048,
      "ㅋㅋㅋㅋㅋㅋ": 5049,
      "사랑하는": 5050,
      "한다고": 5051,
      "과연": 5052,
      "안돼": 5053,
      "연예": 5054,
      "저렇게": 5055,
      "주기": 5056,
      "매력이": 5057,
      "스럽게": 5058,
      "아름답고": 5059,
      "살짝": 5060,
      "생각한다": 5061,
      "없는데": 5062,
      "평이": 5063,
      "여전히": 5064,
      "싸이코": 5065,
      "것들": 5066,
      "겠네": 5067,
      "굳이": 5068,
      "그들의": 5069,
      "글쎄": 5070,
      "기본": 5071,
      "잊지": 5072,
      "통해": 5073,
      "영화라는": 5074,
      "닝타임": 5075,
      "로서": 5076,
      "생활": 5077,
      "이었": 5078,
      "져서": 5079,
      "현실적인": 5080,
      "짜증나는": 5081,
      "추천합니다": 5082,
      "모를": 5083,
      "중의": 5084,
      "치게": 5085,
      "하다니": 5086,
      "이유는": 5087,
      "개판": 5088,
      "결과": 5089,
      "상처": 5090,
      "오버": 5091,
      "장이": 5092,
      "저럭": 5093,
      "유쾌한": 5094,
      "터리": 5095,
      "특별": 5096,
      "재미를": 5097,
      "사랑에": 5098,
      "좋아서": 5099,
      "이후로": 5100,
      "귀엽고": 5101,
      "어지": 5102,
      "작은": 5103,
      "적당": 5104,
      "재밌었는데": 5105,
      "어린이": 5106,
      "순수한": 5107,
      "독특한": 5108,
      "묘사": 5109,
      "이자": 5110,
      "했는지": 5111,
      "아이들": 5112,
      "소재로": 5113,
      "봐야할": 5114,
      "2시간": 5115,
      "남녀": 5116,
      "말할": 5117,
      "몸매": 5118,
      "분노": 5119,
      "아내": 5120,
      "지구": 5121,
      "쩐다": 5122,
      "하셨": 5123,
      "홍보": 5124,
      "하기만": 5125,
      "진심으로": 5126,
      "잊혀지지": 5127,
      "뮤지컬": 5128,
      "들었다": 5129,
      "스는": 5130,
      "다는게": 5131,
      "아닌듯": 5132,
      "잼있게": 5133,
      "(?)": 5134,
      "군대": 5135,
      "그지": 5136,
      "더만": 5137,
      "되서": 5138,
      "섹시": 5139,
      "소장": 5140,
      "시선": 5141,
      "좋게": 5142,
      "좋을": 5143,
      "재밌습니다": 5144,
      "흥미롭": 5145,
      "그럭": 5146,
      "그린": 5147,
      "끼리": 5148,
      "나중에": 5149,
      "남편": 5150,
      "만으로": 5151,
      "심을": 5152,
      "쓰고": 5153,
      "없지": 5154,
      "에휴": 5155,
      "용서": 5156,
      "힐링": 5157,
      "영화들": 5158,
      "재밌었음": 5159,
      "작품성": 5160,
      "장면에서": 5161,
      "연기력이": 5162,
      "평범한": 5163,
      "30": 5164,
      "더이상": 5165,
      "되었": 5166,
      "되네요": 5167,
      "버리": 5168,
      "산만": 5169,
      "않게": 5170,
      "였어요": 5171,
      "이뻐": 5172,
      "재미없네": 5173,
      "30분": 5174,
      "북한": 5175,
      "싸움": 5176,
      "퀄리티": 5177,
      "생각합니다": 5178,
      "슬프고": 5179,
      "나네요": 5180,
      "보길": 5181,
      "본거": 5182,
      "분이": 5183,
      "새벽": 5184,
      "전투": 5185,
      "정을": 5186,
      "정말로": 5187,
      "제목이": 5188,
      "소름돋": 5189,
      "하시는": 5190,
      "아름답다": 5191,
      "그럭저럭": 5192,
      "마저": 5193,
      "빠진": 5194,
      "생에": 5195,
      "열심히": 5196,
      "정서": 5197,
      "ㅎㅎㅎㅎ": 5198,
      "볼만함": 5199,
      "18": 5200,
      "깔끔": 5201,
      "눈빛": 5202,
      "뒤로": 5203,
      "류의": 5204,
      "부끄": 5205,
      "오그라": 5206,
      "하다는": 5207,
      "몰입이": 5208,
      "거짓": 5209,
      "드림": 5210,
      "받는": 5211,
      "비극": 5212,
      "형님": 5213,
      "이건뭐": 5214,
      "반전도": 5215,
      "더라도": 5216,
      "소름끼": 5217,
      "갔다": 5218,
      "고전": 5219,
      "명이": 5220,
      "보아": 5221,
      "싶네요": 5222,
      "아련": 5223,
      "아픈": 5224,
      "줘서": 5225,
      "트가": 5226,
      "10자": 5227,
      "면서도": 5228,
      "그렇다": 5229,
      "어릴적": 5230,
      "공부": 5231,
      "설레": 5232,
      "시는": 5233,
      "울고": 5234,
      "조절": 5235,
      "죽여": 5236,
      "테러": 5237,
      "포기": 5238,
      "우리가": 5239,
      "다큐멘": 5240,
      "99": 5241,
      "난해": 5242,
      "리에": 5243,
      "맞추": 5244,
      "씨가": 5245,
      "재밋다": 5246,
      "공감이": 5247,
      "전기세가": 5248,
      "ou": 5249,
      "까진": 5250,
      "부러": 5251,
      "쉽게": 5252,
      "시킨": 5253,
      "쓰래": 5254,
      "안나오": 5255,
      "어제": 5256,
      "어머니": 5257,
      "일뿐": 5258,
      "통쾌": 5259,
      "낮아서": 5260,
      "내려": 5261,
      "듯이": 5262,
      "지네요": 5263,
      "크게": 5264,
      "표절": 5265,
      "감동과": 5266,
      "신선한": 5267,
      "등장인물": 5268,
      "해피엔딩": 5269,
      "다지": 5270,
      "압권": 5271,
      "어라": 5272,
      "와르": 5273,
      "이루": 5274,
      "하이": 5275,
      "좋아하는데": 5276,
      "이정도면": 5277,
      "스케일": 5278,
      "겟다": 5279,
      "나은": 5280,
      "으론": 5281,
      "있던": 5282,
      "자들": 5283,
      "이라서": 5284,
      "지금은": 5285,
      "영화에요": 5286,
      "웃기고": 5287,
      "추억의": 5288,
      "구하고": 5289,
      "덕분에": 5290,
      "라스": 5291,
      "아이가": 5292,
      "게이": 5293,
      "드럽게": 5294,
      "받을": 5295,
      "수는": 5296,
      "쓰는": 5297,
      "쓸데": 5298,
      "웃겼": 5299,
      "의심": 5300,
      "정우": 5301,
      "좋습니다": 5302,
      "지루해서": 5303,
      "좋았던": 5304,
      "처음엔": 5305,
      "놀랍": 5306,
      "막판": 5307,
      "명의": 5308,
      "펑펑": 5309,
      "중간중간": 5310,
      "가볍게": 5311,
      "겨울": 5312,
      "럽다": 5313,
      "이때": 5314,
      "여기서": 5315,
      "on": 5316,
      "김기": 5317,
      "몰라도": 5318,
      "불쾌": 5319,
      "서야": 5320,
      "슬퍼": 5321,
      "에이": 5322,
      "주지": 5323,
      "희생": 5324,
      "대는": 5325,
      "른다": 5326,
      "아가": 5327,
      "즈니": 5328,
      "지겹": 5329,
      "재미있네요": 5330,
      "결말도": 5331,
      "이연걸": 5332,
      "그립": 5333,
      "니콜": 5334,
      "많다": 5335,
      "았던": 5336,
      "집에서": 5337,
      "!!!!!": 5338,
      "현실을": 5339,
      "기로": 5340,
      "반성": 5341,
      "받아서": 5342,
      "신경": 5343,
      "심각": 5344,
      "없어요": 5345,
      "이쁜": 5346,
      "인터": 5347,
      "주얼": 5348,
      "**": 5349,
      "감명": 5350,
      "갑니다": 5351,
      "게다가": 5352,
      "끝나는": 5353,
      "바이": 5354,
      "봐요": 5355,
      "시걸": 5356,
      "악당": 5357,
      "었나": 5358,
      "있어야": 5359,
      "중에서": 5360,
      "지어": 5361,
      "하려고": 5362,
      "한것": 5363,
      "으로서": 5364,
      "까지는": 5365,
      "아이돌": 5366,
      "시대를": 5367,
      "본방": 5368,
      "악역": 5369,
      "않나": 5370,
      "재난": 5371,
      "적은": 5372,
      "조잡": 5373,
      "형편": 5374,
      "연출도": 5375,
      "만든다": 5376,
      "초반에": 5377,
      "이쁘고": 5378,
      "씁쓸": 5379,
      "하신": 5380,
      "10분": 5381,
      "하기도": 5382,
      "소재가": 5383,
      "배우들도": 5384,
      "상상력": 5385,
      "넘치는": 5386,
      "둘다": 5387,
      "떠나": 5388,
      "루즈": 5389,
      "못했다": 5390,
      "벌써": 5391,
      "암튼": 5392,
      "인해": 5393,
      "생각나는": 5394,
      "사랑의": 5395,
      "정도의": 5396,
      "작가가": 5397,
      "가까": 5398,
      "기술": 5399,
      "느와르": 5400,
      "디즈니": 5401,
      "레스": 5402,
      "본영화": 5403,
      "원이": 5404,
      "인생을": 5405,
      "스러움": 5406,
      "무섭다": 5407,
      "몇번을": 5408,
      "멋지다": 5409,
      "죽는줄": 5410,
      "살고": 5411,
      "시아": 5412,
      "어리": 5413,
      "의문": 5414,
      "잘하고": 5415,
      "청소년": 5416,
      "히어로": 5417,
      "재밌네": 5418,
      "뛰어난": 5419,
      "어렸을": 5420,
      "그걸": 5421,
      "남겨": 5422,
      "달라": 5423,
      "대표": 5424,
      "디어": 5425,
      "로드": 5426,
      "말자": 5427,
      "사고": 5428,
      "상을": 5429,
      "외계": 5430,
      "자식": 5431,
      "장애": 5432,
      "했나": 5433,
      "재미있었다": 5434,
      "보려고": 5435,
      "뻔하고": 5436,
      "삶의": 5437,
      "없게": 5438,
      "왜케": 5439,
      "우와": 5440,
      "더라구요": 5441,
      "?!": 5442,
      "높다": 5443,
      "높아": 5444,
      "들만": 5445,
      "볼거리": 5446,
      "산으로": 5447,
      "아줌": 5448,
      "애들은": 5449,
      "자고": 5450,
      "없다는": 5451,
      "모르게": 5452,
      "그다지": 5453,
      "기엔": 5454,
      "놀랐": 5455,
      "반복": 5456,
      "비주얼": 5457,
      "성인": 5458,
      "시각": 5459,
      "오랫": 5460,
      "빼고는": 5461,
      "ar": 5462,
      "기의": 5463,
      "봤을": 5464,
      "으리": 5465,
      "죽을": 5466,
      "ㅋㅋㅋㅋㅋㅋㅋ": 5467,
      "다시한번": 5468,
      "자체는": 5469,
      "결말은": 5470,
      "만나": 5471,
      "반개도": 5472,
      "보았다": 5473,
      "분들이": 5474,
      "사를": 5475,
      "싸구려": 5476,
      "오브": 5477,
      "이니": 5478,
      "좀더": 5479,
      "영화인듯": 5480,
      "그렇다고": 5481,
      "출연진": 5482,
      "점수를": 5483,
      "고등": 5484,
      "깊이": 5485,
      "던지": 5486,
      "려면": 5487,
      "발로": 5488,
      "보며": 5489,
      "아픔": 5490,
      "연결": 5491,
      "쵝오": 5492,
      "페이": 5493,
      "하늘": 5494,
      "생각하고": 5495,
      "인가요": 5496,
      "이제야": 5497,
      "느낄수": 5498,
      "거임": 5499,
      "끝날": 5500,
      "놈들": 5501,
      "못함": 5502,
      "베스트": 5503,
      "본게": 5504,
      "씬은": 5505,
      "온다": 5506,
      "올해": 5507,
      "죽이고": 5508,
      "했네": 5509,
      "언제나": 5510,
      "강렬": 5511,
      "발전": 5512,
      "볼게": 5513,
      "섹스": 5514,
      "시사회": 5515,
      "에피": 5516,
      "웠음": 5517,
      "집에": 5518,
      "풋풋": 5519,
      "작품을": 5520,
      "가는줄": 5521,
      "싶은데": 5522,
      "대사가": 5523,
      "바뀌": 5524,
      "안맞": 5525,
      "올려": 5526,
      "일반": 5527,
      "있었는데": 5528,
      "사랑은": 5529,
      "쓰레기다": 5530,
      "아깝지": 5531,
      "모든게": 5532,
      "긴장감도": 5533,
      "눈에": 5534,
      "느라": 5535,
      "로버": 5536,
      "방금": 5537,
      "시시": 5538,
      "자단": 5539,
      "했으나": 5540,
      "현대": 5541,
      "액션영화": 5542,
      "것에": 5543,
      "구니": 5544,
      "니아": 5545,
      "많고": 5546,
      "맨날": 5547,
      "봤더니": 5548,
      "심이": 5549,
      "안보": 5550,
      "할말이": 5551,
      "아줌마": 5552,
      "거리는": 5553,
      "묘한": 5554,
      "무언": 5555,
      "와는": 5556,
      "챙겨": 5557,
      "나오면": 5558,
      "본다면": 5559,
      "3D": 5560,
      "검색": 5561,
      "늘어": 5562,
      "미드": 5563,
      "버려": 5564,
      "성의": 5565,
      "친다": 5566,
      "특수": 5567,
      "어려운": 5568,
      "전문가": 5569,
      "는가": 5570,
      "돋보": 5571,
      "떠나서": 5572,
      "울었다": 5573,
      "주변": 5574,
      "남자가": 5575,
      "눈물을": 5576,
      "헐리우드": 5577,
      "교육": 5578,
      "깨닫": 5579,
      "먹은": 5580,
      "불어": 5581,
      "불구하고": 5582,
      "시트": 5583,
      "틀어": 5584,
      "필름": 5585,
      "하던데": 5586,
      "해석": 5587,
      "느낌을": 5588,
      "인생의": 5589,
      "남자의": 5590,
      "무섭지도": 5591,
      "마이너": 5592,
      "가져": 5593,
      "거기": 5594,
      "볼때": 5595,
      "섬세": 5596,
      "안보고": 5597,
      "었네요": 5598,
      "왔다": 5599,
      "입장": 5600,
      "존경": 5601,
      "죄다": 5602,
      "지의": 5603,
      "질리지": 5604,
      "프레": 5605,
      "이런영화가": 5606,
      "옛날에": 5607,
      "들게": 5608,
      "로는": 5609,
      "르노": 5610,
      "말하는": 5611,
      "뭉클": 5612,
      "설마": 5613,
      "없습니다": 5614,
      "하겠다": 5615,
      "히는": 5616,
      "재미잇": 5617,
      "이해할": 5618,
      "시키는": 5619,
      "엉성한": 5620,
      "쓰래기": 5621,
      "려다": 5622,
      "망한": 5623,
      "방법": 5624,
      "보내": 5625,
      "상업": 5626,
      "않지만": 5627,
      "어휴": 5628,
      "우주": 5629,
      "하라": 5630,
      "에서의": 5631,
      "기대안하고": 5632,
      "정신병": 5633,
      "고통": 5634,
      "국가": 5635,
      "누구나": 5636,
      "듣고": 5637,
      "많아": 5638,
      "연속": 5639,
      "움을": 5640,
      "찌질": 5641,
      "영화네": 5642,
      "웃음이": 5643,
      "무엇을": 5644,
      "ad": 5645,
      "갈등": 5646,
      "거라": 5647,
      "견자단": 5648,
      "깜짝": 5649,
      "끝난": 5650,
      "단지": 5651,
      "성에": 5652,
      "시에": 5653,
      "이의": 5654,
      "죽은": 5655,
      "타이": 5656,
      "하구": 5657,
      "해진": 5658,
      "좋아할": 5659,
      "보지마라": 5660,
      "6점": 5661,
      "남기": 5662,
      "로봇": 5663,
      "리도": 5664,
      "역겨": 5665,
      "제이": 5666,
      "조선": 5667,
      "짝퉁": 5668,
      "최강": 5669,
      "코난": 5670,
      "재미없어요": 5671,
      "아직까지": 5672,
      "단순한": 5673,
      "시트콤": 5674,
      "거면": 5675,
      "경험": 5676,
      "도가": 5677,
      "독교": 5678,
      "아역": 5679,
      "이따위": 5680,
      "최고입니다": 5681,
      "이거보고": 5682,
      "같았": 5683,
      "단연": 5684,
      "대화": 5685,
      "란다": 5686,
      "못한다": 5687,
      "바꿔": 5688,
      "비판": 5689,
      "생긴": 5690,
      "팬이": 5691,
      "느끼는": 5692,
      "0점은": 5693,
      "극치": 5694,
      "대중": 5695,
      "밋밋": 5696,
      "버리는": 5697,
      "식의": 5698,
      "었을": 5699,
      "잊을": 5700,
      "지루할": 5701,
      "사랑스러운": 5702,
      "나오지": 5703,
      "김기덕": 5704,
      "고양": 5705,
      "딱히": 5706,
      "세월": 5707,
      "수의": 5708,
      "신은": 5709,
      "왜이래": 5710,
      "외모": 5711,
      "유발": 5712,
      "탈출": 5713,
      "볼만하다": 5714,
      "몰입감": 5715,
      "거운": 5716,
      "끌고": 5717,
      "떠오": 5718,
      "명품": 5719,
      "복잡": 5720,
      "생겼": 5721,
      "스스로": 5722,
      "아류": 5723,
      "이용": 5724,
      "전반": 5725,
      "조작": 5726,
      "조합": 5727,
      "줄이야": 5728,
      "...?": 5729,
      "좋아해서": 5730,
      "에피소": 5731,
      "가락": 5732,
      "다를": 5733,
      "사진": 5734,
      "신의": 5735,
      "없었던": 5736,
      "우고": 5737,
      "찝찝": 5738,
      "포인": 5739,
      "흔한": 5740,
      "내용인지": 5741,
      "아쉽네요": 5742,
      "해야지": 5743,
      "의미를": 5744,
      "거슬": 5745,
      "과는": 5746,
      "속의": 5747,
      "수고": 5748,
      "안가": 5749,
      "타고": 5750,
      "학년": 5751,
      "했네요": 5752,
      "있는지": 5753,
      "작품은": 5754,
      "영화였어요": 5755,
      "과장": 5756,
      "다양": 5757,
      "되면": 5758,
      "명화": 5759,
      "어처": 5760,
      "자살": 5761,
      "테이": 5762,
      "투자": 5763,
      "했어": 5764,
      "허세": 5765,
      "재미있었어요": 5766,
      "전개도": 5767,
      "음악과": 5768,
      "즐겁게": 5769,
      "21": 5770,
      "개념": 5771,
      "구로": 5772,
      "국내": 5773,
      "도전": 5774,
      "드리": 5775,
      "랍니다": 5776,
      "마스": 5777,
      "생생": 5778,
      "은근": 5779,
      "조용": 5780,
      "하나의": 5781,
      "쓰레기같은": 5782,
      "더라면": 5783,
      "표현한": 5784,
      "인상깊": 5785,
      "로그인": 5786,
      "남은": 5787,
      "내면": 5788,
      "상이": 5789,
      "싶을": 5790,
      "위해서": 5791,
      "집니다": 5792,
      "기대했는데": 5793,
      "장면도": 5794,
      "그렇지": 5795,
      "잔잔하고": 5796,
      "따뜻해지는": 5797,
      "모르겠고": 5798,
      "해주세요": 5799,
      "기독교": 5800,
      "러닝타임": 5801,
      "벗어": 5802,
      "불러": 5803,
      "잡고": 5804,
      "지켜": 5805,
      "할머니": 5806,
      "정도는": 5807,
      "수준의": 5808,
      "신선하고": 5809,
      "이쁘다": 5810,
      "좋겠어요": 5811,
      "탄탄한": 5812,
      "더러운": 5813,
      "꿈을": 5814,
      "이며": 5815,
      "짜증난다": 5816,
      "알바들": 5817,
      "마이클": 5818,
      "5분": 5819,
      "is": 5820,
      "개뿔": 5821,
      "겁니다": 5822,
      "계의": 5823,
      "끝이": 5824,
      "봤을때": 5825,
      "신파": 5826,
      "어우": 5827,
      "영국": 5828,
      "이럴": 5829,
      "좋지만": 5830,
      "집어": 5831,
      "편견": 5832,
      "함에": 5833,
      "보고나면": 5834,
      "생각으로": 5835,
      "작품이다": 5836,
      "있었지만": 5837,
      "시대에": 5838,
      "보았습니다": 5839,
      "안타깝다": 5840,
      "멍청한": 5841,
      "무언가": 5842,
      "거같다": 5843,
      "기발": 5844,
      "누나": 5845,
      "무척": 5846,
      "물이": 5847,
      "베이": 5848,
      "보네": 5849,
      "슬펐": 5850,
      "애가": 5851,
      "왠만하면": 5852,
      "지마": 5853,
      "하길래": 5854,
      "한참": 5855,
      "헐리웃": 5856,
      "어처구니": 5857,
      ".\"\"\"": 5858,
      "멋있다": 5859,
      "보던": 5860,
      "씨의": 5861,
      "앞으로도": 5862,
      "와우": 5863,
      "크레": 5864,
      "풍경": 5865,
      "해리": 5866,
      "사람들의": 5867,
      "봐야지": 5868,
      "웃기지도": 5869,
      "007": 5870,
      "감정을": 5871,
      "학교에서": 5872,
      "둘이": 5873,
      "등등": 5874,
      "믿을": 5875,
      "새롭": 5876,
      "신고": 5877,
      "의외로": 5878,
      "인것": 5879,
      "인과": 5880,
      "인기": 5881,
      "인들": 5882,
      "일을": 5883,
      "정체": 5884,
      "져요": 5885,
      "직접": 5886,
      "헤어": 5887,
      "하는건": 5888,
      "인간이": 5889,
      "간의": 5890,
      "갖고": 5891,
      "늦게": 5892,
      "레알": 5893,
      "망쳐": 5894,
      "상관": 5895,
      "실력": 5896,
      "책을": 5897,
      "책임": 5898,
      "영화보는": 5899,
      "으로써": 5900,
      "일본영화": 5901,
      "1시간": 5902,
      "8점대": 5903,
      "고마": 5904,
      "그거": 5905,
      "다룬": 5906,
      "버림": 5907,
      "사의": 5908,
      "오로": 5909,
      "정은": 5910,
      "착한": 5911,
      "하는것": 5912,
      "정도가": 5913,
      "좋았을": 5914,
      "만들어도": 5915,
      "더불어": 5916,
      "박수를": 5917,
      "아닙": 5918,
      "에대한": 5919,
      "영혼": 5920,
      "움직": 5921,
      "위로": 5922,
      "이정": 5923,
      "형제": 5924,
      "지루하게": 5925,
      "하나로": 5926,
      "했다고": 5927,
      "보여주고": 5928,
      "시즌2": 5929,
      "가치가": 5930,
      "BS": 5931,
      "강호": 5932,
      "관한": 5933,
      "그것도": 5934,
      "기준": 5935,
      "다이": 5936,
      "달달": 5937,
      "미모": 5938,
      "약한": 5939,
      "예뻐": 5940,
      "오바": 5941,
      "우기": 5942,
      "몰입해서": 5943,
      "연기력도": 5944,
      "라이언": 5945,
      "힘들다": 5946,
      "초등학생": 5947,
      "누군가": 5948,
      "44": 5949,
      "7점대": 5950,
      "♡♡": 5951,
      "개막장": 5952,
      "넘게": 5953,
      "따로": 5954,
      "봤네": 5955,
      "셔서": 5956,
      "여름": 5957,
      "응원": 5958,
      "캐릭터가": 5959,
      "작가님": 5960,
      "대본": 5961,
      "뭐라": 5962,
      "잼있다": 5963,
      "줄수": 5964,
      "쳐서": 5965,
      "하진": 5966,
      "이유를": 5967,
      "만점에": 5968,
      "다큐멘터리": 5969,
      "나니": 5970,
      "면에서": 5971,
      "었지": 5972,
      "위대한": 5973,
      "줍니다": 5974,
      "카리스": 5975,
      "배우를": 5976,
      "나오네": 5977,
      "아깝고": 5978,
      "주인공은": 5979,
      "이해하기": 5980,
      "현실성": 5981,
      "무서워": 5982,
      "모르겠지만": 5983,
      "ㅠㅠㅠㅠㅠㅠㅠㅠ": 5984,
      "어울리는": 5985,
      "the": 5986,
      "at": 5987,
      "감히": 5988,
      "같네": 5989,
      "그자체": 5990,
      "나네": 5991,
      "럽고": 5992,
      "사수": 5993,
      "씬이": 5994,
      "야동": 5995,
      "으니까": 5996,
      "점에서": 5997,
      "클레": 5998,
      "포르노": 5999,
      "한번쯤": 6000,
      "이제서야": 6001,
      "ㅠㅜ": 6002,
      "대해서": 6003,
      "레전": 6004,
      "로우": 6005,
      "박진": 6006,
      "성격": 6007,
      "웃고": 6008,
      "트맨": 6009,
      "한개도": 6010,
      "할지": 6011,
      "재미와": 6012,
      "이런영화를": 6013,
      "부분도": 6014,
      "노래도": 6015,
      "행복한": 6016,
      "스크린": 6017,
      "ver": 6018,
      "가요": 6019,
      "겨우": 6020,
      "로도": 6021,
      "말았": 6022,
      "바꾸": 6023,
      "않을까": 6024,
      "었어": 6025,
      "인내": 6026,
      "주말": 6027,
      "주성": 6028,
      "지않은": 6029,
      "특이": 6030,
      "프리": 6031,
      "했을까": 6032,
      "후속": 6033,
      "지루했다": 6034,
      "우리는": 6035,
      "~~~~~~~~": 6036,
      "잔인한": 6037,
      "가능한": 6038,
      "카리스마": 6039,
      "22": 6040,
      "al": 6041,
      "그것": 6042,
      "드의": 6043,
      "물을": 6044,
      "빼면": 6045,
      "아동": 6046,
      "우려": 6047,
      "이민": 6048,
      "치밀": 6049,
      "패러": 6050,
      "완전히": 6051,
      "좋았지만": 6052,
      "재밋어요": 6053,
      "답답하고": 6054,
      "유쾌하고": 6055,
      "즐거운": 6056,
      "ing": 6057,
      "만을": 6058,
      "비밀": 6059,
      "였지만": 6060,
      "한명": 6061,
      "평점보고": 6062,
      "감동의": 6063,
      "다시는": 6064,
      "하지마": 6065,
      "유치함": 6066,
      "원작의": 6067,
      "느껴진다": 6068,
      "ㄷㄷㄷ": 6069,
      "자신이": 6070,
      "ie": 6071,
      "되는데": 6072,
      "블록": 6073,
      "빌려": 6074,
      "스파이": 6075,
      "악마": 6076,
      "영이": 6077,
      "우정": 6078,
      "잠깐": 6079,
      "정상": 6080,
      "영화와": 6081,
      "재밌다고": 6082,
      "좋았으나": 6083,
      "흥미로운": 6084,
      "잼있어요": 6085,
      "중요한": 6086,
      "어쩔수": 6087,
      "bs": 6088,
      "강력": 6089,
      "과의": 6090,
      "꼬마": 6091,
      "낮게": 6092,
      "살려": 6093,
      "아기": 6094,
      "이소": 6095,
      "인디": 6096,
      "있구나": 6097,
      "자주": 6098,
      "제시": 6099,
      "쳤다": 6100,
      ".........": 6101,
      "사람도": 6102,
      "우리의": 6103,
      "유치하다": 6104,
      "모르겠음": 6105,
      "자신을": 6106,
      "개연성이": 6107,
      "깨달": 6108,
      "때까지": 6109,
      "보구": 6110,
      "용으로": 6111,
      "정화": 6112,
      "만큼은": 6113,
      "♥♥♥♥": 6114,
      "예쁘고": 6115,
      "손발이": 6116,
      "나가는": 6117,
      "대부분": 6118,
      "부부": 6119,
      "세기": 6120,
      "심하게": 6121,
      "아냐": 6122,
      "오오": 6123,
      "왔는데": 6124,
      "점수가": 6125,
      "줬다": 6126,
      "지겨": 6127,
      "테일": 6128,
      "형사": 6129,
      "후에": 6130,
      "힘이": 6131,
      "영화인줄": 6132,
      "재밌을": 6133,
      "장르가": 6134,
      "년전에": 6135,
      "높게": 6136,
      "때는": 6137,
      "변태": 6138,
      "빵터": 6139,
      "욕망": 6140,
      "짜임": 6141,
      "참으로": 6142,
      "생각함": 6143,
      "보다도": 6144,
      "하지마라": 6145,
      "가슴에": 6146,
      "아까운영화": 6147,
      "어린시절": 6148,
      "소설을": 6149,
      "연예인": 6150,
      "가벼": 6151,
      "기자": 6152,
      "기회": 6153,
      "대를": 6154,
      "도는": 6155,
      "똑같은": 6156,
      "맞아": 6157,
      "방영": 6158,
      "식을": 6159,
      "잼잇": 6160,
      "생각하는": 6161,
      "감동적이다": 6162,
      "아니야": 6163,
      "시간가는줄": 6164,
      "이상의": 6165,
      "아까울": 6166,
      "친구가": 6167,
      "1위": 6168,
      "re": 6169,
      "김민": 6170,
      "들에": 6171,
      "미가": 6172,
      "바닥": 6173,
      "비가": 6174,
      "삶에": 6175,
      "아들이": 6176,
      "애기": 6177,
      "에만": 6178,
      "움이": 6179,
      "젠장": 6180,
      "차별": 6181,
      "호가": 6182,
      "보다니": 6183,
      "만들면": 6184,
      "명작이": 6185,
      "말도안되는": 6186,
      "역대급": 6187,
      "ov": 6188,
      "관이": 6189,
      "김수": 6190,
      "당연": 6191,
      "부를": 6192,
      "양심": 6193,
      "어쩜": 6194,
      "여태": 6195,
      "예능": 6196,
      "사랑이야기": 6197,
      "내가본": 6198,
      "장면을": 6199,
      "재밋음": 6200,
      "개연성도": 6201,
      "주성치": 6202,
      "50": 6203,
      "나다": 6204,
      "나지": 6205,
      "느니": 6206,
      "보통": 6207,
      "살린": 6208,
      "성은": 6209,
      "아예": 6210,
      "었네": 6211,
      "영어": 6212,
      "짝이": 6213,
      "생각나서": 6214,
      "!!!!!!!!!!!!!!!!": 6215,
      "감각": 6216,
      "감도": 6217,
      "긴한데": 6218,
      "넘는": 6219,
      "된다는": 6220,
      "려요": 6221,
      "많았": 6222,
      "빼곤": 6223,
      "살면서": 6224,
      "역겹": 6225,
      "이따": 6226,
      "일품": 6227,
      "자나": 6228,
      "자리": 6229,
      "찍어": 6230,
      "편이": 6231,
      "영화보면서": 6232,
      "1점준": 6233,
      "10점을": 6234,
      "문제가": 6235,
      "들여": 6236,
      "모양": 6237,
      "무술": 6238,
      "버스터": 6239,
      "봤을까": 6240,
      "신비": 6241,
      "아래": 6242,
      "안습": 6243,
      "야구": 6244,
      "있냐": 6245,
      "핵노잼": 6246,
      "스토리의": 6247,
      "최고의영화": 6248,
      "0000": 6249,
      "재미도없고": 6250,
      "영환데": 6251,
      "40": 6252,
      "me": 6253,
      "가야": 6254,
      "구성이": 6255,
      "그건": 6256,
      "냄새": 6257,
      "돈을": 6258,
      "드네요": 6259,
      "몇몇": 6260,
      "브루": 6261,
      "안쓰": 6262,
      "않네요": 6263,
      "이로": 6264,
      "죽어": 6265,
      "지마라": 6266,
      "코드": 6267,
      "함은": 6268,
      "해결": 6269,
      "해지": 6270,
      "영화인가": 6271,
      "재미없게": 6272,
      "시리즈는": 6273,
      "긴장감이": 6274,
      "DV": 6275,
      "데리고": 6276,
      "뒤에": 6277,
      "박한": 6278,
      "배역": 6279,
      "비하면": 6280,
      "숨겨": 6281,
      "엇다": 6282,
      "요일": 6283,
      "연기잘": 6284,
      "봤는데도": 6285,
      "이상은": 6286,
      "있다고": 6287,
      "여자의": 6288,
      "보여준다": 6289,
      "하기엔": 6290,
      "2014": 6291,
      "떨어진다": 6292,
      "괜찮은데": 6293,
      "볼수있는": 6294,
      "포인트": 6295,
      "DVD": 6296,
      "강한": 6297,
      "달리": 6298,
      "되나": 6299,
      "무한": 6300,
      "설득": 6301,
      "잘만들": 6302,
      "중독": 6303,
      "만들다니": 6304,
      "한번도": 6305,
      "시대의": 6306,
      "답답한": 6307,
      "이래서": 6308,
      "초등학교": 6309,
      "근래": 6310,
      "낮지": 6311,
      "동성애": 6312,
      "류승": 6313,
      "마리": 6314,
      "부작": 6315,
      "분은": 6316,
      "사상": 6317,
      "세련": 6318,
      "스키": 6319,
      "안볼": 6320,
      "앞에": 6321,
      "절로": 6322,
      "탄생": 6323,
      "허허": 6324,
      "느낌의": 6325,
      "모두가": 6326,
      "시리즈중": 6327,
      "오랜만": 6328,
      "ㅉㅉㅉ": 6329,
      "비디오로": 6330,
      "영원히": 6331,
      "레전드": 6332,
      "sf": 6333,
      "공짜": 6334,
      "들어서": 6335,
      "모험": 6336,
      "바랍니다": 6337,
      "버스": 6338,
      "범인": 6339,
      "비행": 6340,
      "색다른": 6341,
      "심오": 6342,
      "싶어요": 6343,
      "제임": 6344,
      "차이": 6345,
      "했지": 6346,
      "..^^": 6347,
      "연출과": 6348,
      "부족하다": 6349,
      "분위기가": 6350,
      "진부하고": 6351,
      ",.,.": 6352,
      "그녀의": 6353,
      "안타까운": 6354,
      "감흥": 6355,
      "과학": 6356,
      "니가": 6357,
      "미스터": 6358,
      "어두": 6359,
      "잡아": 6360,
      "짧은": 6361,
      "최초": 6362,
      "화끈": 6363,
      "영화만": 6364,
      "재미로": 6365,
      "최고최고": 6366,
      "배우도": 6367,
      "소름이": 6368,
      "지나치게": 6369,
      "아름다움": 6370,
      "유명한": 6371,
      "70년대": 6372,
      "그만큼": 6373,
      "때가": 6374,
      "많아서": 6375,
      "봐주": 6376,
      "봐줄": 6377,
      "부르": 6378,
      "자랑": 6379,
      "해진다": 6380,
      "영화나": 6381,
      "하고자": 6382,
      "마지막까지": 6383,
      "한국영화는": 6384,
      "많은데": 6385,
      "원작이": 6386,
      "기다려": 6387,
      "패러디": 6388,
      "관련": 6389,
      "그당시": 6390,
      "기지": 6391,
      "낮다": 6392,
      "됐다": 6393,
      "두근": 6394,
      "먹을": 6395,
      "야말로": 6396,
      "였고": 6397,
      "왜곡": 6398,
      "최고임": 6399,
      "짜증나서": 6400,
      "있었음": 6401,
      "세상을": 6402,
      "0점이": 6403,
      "199": 6404,
      "it": 6405,
      "기법": 6406,
      "다섯": 6407,
      "둘째": 6408,
      "맛이": 6409,
      "매일": 6410,
      "민망": 6411,
      "버릴": 6412,
      "베드": 6413,
      "본듯": 6414,
      "본지": 6415,
      "석이": 6416,
      "선동": 6417,
      "와의": 6418,
      "전율": 6419,
      "트의": 6420,
      "할리": 6421,
      "했었는데": 6422,
      "영화인지": 6423,
      "재밌던데": 6424,
      "생각하면": 6425,
      "재미있습니다": 6426,
      "인상적이": 6427,
      "오래된": 6428,
      "여러가지": 6429,
      "실제로": 6430,
      "전설의": 6431,
      "알겠는데": 6432,
      "끝났": 6433,
      "답이": 6434,
      "라인": 6435,
      "뭐니": 6436,
      "상태": 6437,
      "안나": 6438,
      "없었음": 6439,
      "우스": 6440,
      "운드": 6441,
      "유리": 6442,
      "유지": 6443,
      "일관": 6444,
      "조니": 6445,
      "조아": 6446,
      "주면": 6447,
      "죽고": 6448,
      "지났": 6449,
      "반전은": 6450,
      "스트레스": 6451,
      "관객을": 6452,
      "추억이": 6453,
      "한심한": 6454,
      "나쁘지": 6455,
      ":)": 6456,
      "zz": 6457,
      "겠음": 6458,
      "겠네요": 6459,
      "나무": 6460,
      "낚시": 6461,
      "낮아": 6462,
      "단편": 6463,
      "명을": 6464,
      "부실": 6465,
      "의리": 6466,
      "잇는": 6467,
      "충실": 6468,
      "토록": 6469,
      "ㅜㅜㅜㅜ": 6470,
      "부분은": 6471,
      "결말을": 6472,
      "떨어지고": 6473,
      "만들었는지": 6474,
      "두번째": 6475,
      "깨닫게": 6476,
      "아닙니다": 6477,
      ".,": 6478,
      "리기": 6479,
      "부탁": 6480,
      "사투": 6481,
      "싶지": 6482,
      "이것이": 6483,
      "작위": 6484,
      "잼나게": 6485,
      "저리": 6486,
      "평을": 6487,
      "피아": 6488,
      "하길": 6489,
      "할말": 6490,
      "해주고": 6491,
      "이상하게": 6492,
      "20분": 6493,
      "여운을": 6494,
      "웃기다": 6495,
      "영화라니": 6496,
      "시청률이": 6497,
      "본방사수": 6498,
      ".^^": 6499,
      "M창": 6500,
      "거기에": 6501,
      "공간": 6502,
      "맞지": 6503,
      "스페": 6504,
      "야한": 6505,
      "잔뜩": 6506,
      "정적인": 6507,
      "찍고": 6508,
      "티브": 6509,
      "이야기는": 6510,
      "명작입니다": 6511,
      "친구랑": 6512,
      "3번": 6513,
      "나간": 6514,
      "남네요": 6515,
      "듭니다": 6516,
      "새록": 6517,
      "손가락": 6518,
      "심장": 6519,
      "심지어": 6520,
      "왔습니다": 6521,
      "위에": 6522,
      "이들": 6523,
      "일으": 6524,
      "읽어": 6525,
      "잘봤어요": 6526,
      "최민": 6527,
      "진짜로": 6528,
      "생각했는데": 6529,
      "별로임": 6530,
      "있다니": 6531,
      "가슴을": 6532,
      "엄마가": 6533,
      "크레딧": 6534,
      "것들이": 6535,
      "공주": 6536,
      "도망": 6537,
      "려나": 6538,
      "뭘까": 6539,
      "선물": 6540,
      "소소한": 6541,
      "손에": 6542,
      "시끄": 6543,
      "어지는": 6544,
      "울컥": 6545,
      "원의": 6546,
      "잔혹": 6547,
      "줄은": 6548,
      "캐리": 6549,
      "키스": 6550,
      "배우는": 6551,
      "없다고": 6552,
      "감독을": 6553,
      "보는거": 6554,
      "하나같이": 6555,
      "재미없었다": 6556,
      "노래가": 6557,
      "에피소드": 6558,
      "것인가": 6559,
      "결코": 6560,
      "냐고": 6561,
      "라가": 6562,
      "세포": 6563,
      "아파": 6564,
      "윤발": 6565,
      "치곤": 6566,
      "파워": 6567,
      "한숨": 6568,
      "..;;": 6569,
      "이런건": 6570,
      "사랑해": 6571,
      "명작을": 6572,
      "막장드라마": 6573,
      "나왔다": 6574,
      "훌륭하다": 6575,
      "말고는": 6576,
      "귀여워": 6577,
      "나머지": 6578,
      "특수효과": 6579,
      "5년": 6580,
      "남긴": 6581,
      "낮네": 6582,
      "다크": 6583,
      "도없고": 6584,
      "때도": 6585,
      "로코": 6586,
      "머리가": 6587,
      "변화": 6588,
      "잡을": 6589,
      "파이어": 6590,
      "배우들은": 6591,
      "20대": 6592,
      "영화였음": 6593,
      "건가요": 6594,
      "하하하": 6595,
      "시즌1": 6596,
      "하자는": 6597,
      "짜임새": 6598,
      "제임스": 6599,
      "가르": 6600,
      "거부": 6601,
      "겠어요": 6602,
      "겠습니다": 6603,
      "납니다": 6604,
      "니깐": 6605,
      "니당": 6606,
      "때려": 6607,
      "스텝": 6608,
      "연극": 6609,
      "열연": 6610,
      "점도": 6611,
      "패스": 6612,
      "허전": 6613,
      "없는영화": 6614,
      "10대": 6615,
      "아깝네": 6616,
      "여자는": 6617,
      "에게는": 6618,
      "소재도": 6619,
      "스럽지": 6620,
      "000": 6621,
      "의미가": 6622,
      "2편은": 6623,
      "좋겠네요": 6624,
      "킬링타임용으로": 6625,
      "훈훈한": 6626,
      "살다살다": 6627,
      "개는": 6628,
      "려다가": 6629,
      "만남": 6630,
      "방식": 6631,
      "보라": 6632,
      "본건데": 6633,
      "센스": 6634,
      "야할": 6635,
      "어의": 6636,
      "제외": 6637,
      "지나도": 6638,
      "했더니": 6639,
      "정말이지": 6640,
      "최고였다": 6641,
      "아니지": 6642,
      "재미있어": 6643,
      "아까웠다": 6644,
      "반전을": 6645,
      "봤다면": 6646,
      "억지스러운": 6647,
      "아쉽지만": 6648,
      "무섭고": 6649,
      "시청자": 6650,
      "독립영화": 6651,
      "느꼈다": 6652,
      "어설프고": 6653,
      "b급": 6654,
      "같지만": 6655,
      "다루": 6656,
      "무료": 6657,
      "바탕": 6658,
      "베리": 6659,
      "사무": 6660,
      "삭제": 6661,
      "스피": 6662,
      "안간다": 6663,
      "어째": 6664,
      "없으면": 6665,
      "이병": 6666,
      "자동": 6667,
      "조화": 6668,
      "집착": 6669,
      "해준다": 6670,
      "혹은": 6671,
      "감동은": 6672,
      "처음에": 6673,
      "한국인": 6674,
      "많은걸": 6675,
      "따뜻하고": 6676,
      "점수는": 6677,
      "식상한": 6678,
      "크리스마스": 6679,
      "소중한": 6680,
      "감정이입": 6681,
      "개가": 6682,
      "길게": 6683,
      "끝에": 6684,
      "담배": 6685,
      "만은": 6686,
      "목숨": 6687,
      "바다": 6688,
      "씨는": 6689,
      "유아": 6690,
      "인형": 6691,
      "잡는": 6692,
      "장국": 6693,
      "정작": 6694,
      "파괴": 6695,
      "재밌다는": 6696,
      "보기에": 6697,
      "보기에는": 6698,
      "아무런": 6699,
      "영상이": 6700,
      "다운받아": 6701,
      "무엇인지": 6702,
      "다양한": 6703,
      "~!!!": 6704,
      "감은": 6705,
      "것같은": 6706,
      "구라": 6707,
      "끔찍": 6708,
      "로만": 6709,
      "리카": 6710,
      "멘타": 6711,
      "몰라": 6712,
      "버전": 6713,
      "보라고": 6714,
      "볼까": 6715,
      "볼려고": 6716,
      "속으로": 6717,
      "안될": 6718,
      "안본": 6719,
      "잘어울": 6720,
      "정보": 6721,
      "하더라": 6722,
      "화장": 6723,
      "사랑해요": 6724,
      "이상하고": 6725,
      "극장가서": 6726,
      "가족이": 6727,
      "몰입도가": 6728,
      "최근에": 6729,
      "스티븐": 6730,
      "-;;": 6731,
      "be": 6732,
      "le": 6733,
      "고맙": 6734,
      "대놓고": 6735,
      "먼가": 6736,
      "묻어": 6737,
      "서부": 6738,
      "수입": 6739,
      "싶어서": 6740,
      "죽이": 6741,
      "진리": 6742,
      "포터": 6743,
      "하군": 6744,
      "영화야": 6745,
      "이런영화는": 6746,
      "아니라고": 6747,
      "액션을": 6748,
      "했다면": 6749,
      "짜증남": 6750,
      "연기력은": 6751,
      "흥미로": 6752,
      "1편이": 6753,
      "잼있음": 6754,
      "역사를": 6755,
      "당신은": 6756,
      "여주가": 6757,
      "선생님": 6758,
      "새벽에": 6759,
      "낚였다": 6760,
      "내게": 6761,
      "동네": 6762,
      "드시": 6763,
      "레인": 6764,
      "안감": 6765,
      "않아서": 6766,
      "제니": 6767,
      "죽이는": 6768,
      "진한": 6769,
      "치지": 6770,
      "통령": 6771,
      "형래": 6772,
      "재밌어서": 6773,
      "생각할": 6774,
      "떨어지": 6775,
      "엔딩이": 6776,
      "주제를": 6777,
      "집중이": 6778,
      "태어나서": 6779,
      "블록버스터": 6780,
      "브루스": 6781,
      "7년": 6782,
      "그들": 6783,
      "로써": 6784,
      "만다": 6785,
      "만듬": 6786,
      "빠지는": 6787,
      "악한": 6788,
      "열정": 6789,
      "재능": 6790,
      "터미": 6791,
      "영화제": 6792,
      "생각도": 6793,
      "원작에": 6794,
      "부모님": 6795,
      "말하고자": 6796,
      "잘생겼": 6797,
      "가수": 6798,
      "갔는데": 6799,
      "과정": 6800,
      "대신": 6801,
      "봤지": 6802,
      "수많은": 6803,
      "없었": 6804,
      "음이": 6805,
      "임을": 6806,
      "잤다": 6807,
      "조카": 6808,
      "종영": 6809,
      "좋앗": 6810,
      "즐겨": 6811,
      "짜집": 6812,
      "키는": 6813,
      "티가": 6814,
      "후의": 6815,
      "기대이상": 6816,
      "전개와": 6817,
      "매력을": 6818,
      "1편은": 6819,
      "돌아보게": 6820,
      "어색하고": 6821,
      "주제가": 6822,
      "엉성하고": 6823,
      "아프다": 6824,
      "막판에": 6825,
      "간지": 6826,
      "것같아요": 6827,
      "경이": 6828,
      "낚였": 6829,
      "높아서": 6830,
      "당연히": 6831,
      "덕화": 6832,
      "밤에": 6833,
      "브리": 6834,
      "성기": 6835,
      "세번": 6836,
      "싶었다": 6837,
      "어진": 6838,
      "유럽": 6839,
      "인들이": 6840,
      "임팩": 6841,
      "적절": 6842,
      "정확": 6843,
      "줘도": 6844,
      "케빈": 6845,
      "폐지": 6846,
      "폭발": 6847,
      "하도": 6848,
      "영화화": 6849,
      "적이지": 6850,
      "부터가": 6851,
      "살아가는": 6852,
      "그저그런": 6853,
      "집중해서": 6854,
      "????????": 6855,
      "교훈을": 6856,
      "클레멘타": 6857,
      "건만": 6858,
      "담은": 6859,
      "디테일": 6860,
      "서양": 6861,
      "성과": 6862,
      "언젠": 6863,
      "이보다": 6864,
      "잘하는": 6865,
      "적당히": 6866,
      "폭풍": 6867,
      "했을때": 6868,
      "혹시": 6869,
      "드라마의": 6870,
      "처음에는": 6871,
      "연출은": 6872,
      "재미없어서": 6873,
      "보여줬": 6874,
      "공포물": 6875,
      "레이션": 6876,
      "♥♥♥": 6877,
      "약간의": 6878,
      "케이블에서": 6879,
      "유일하게": 6880,
      "아류작": 6881,
      "he": 6882,
      "냈다": 6883,
      "다신": 6884,
      "담겨": 6885,
      "두려": 6886,
      "따름": 6887,
      "매니아": 6888,
      "버그": 6889,
      "블루": 6890,
      "비현실": 6891,
      "빠졌": 6892,
      "서는": 6893,
      "없냐": 6894,
      "여진": 6895,
      "읽고": 6896,
      "자본": 6897,
      "천국": 6898,
      "추격": 6899,
      "크로": 6900,
      "호감": 6901,
      "확인": 6902,
      "내용과": 6903,
      "내용에": 6904,
      "시간아깝다": 6905,
      "다시보니": 6906,
      "영상과": 6907,
      "돌아가": 6908,
      "얼굴이": 6909,
      "한편의": 6910,
      "터미네이": 6911,
      "나에겐": 6912,
      "동시에": 6913,
      "드래": 6914,
      "든지": 6915,
      "만약": 6916,
      "맞춰": 6917,
      "면이": 6918,
      "뭐하나": 6919,
      "뭥미": 6920,
      "미쳤": 6921,
      "아담": 6922,
      "여친": 6923,
      "영향": 6924,
      "오지": 6925,
      "우뢰": 6926,
      "이들이": 6927,
      "이었음": 6928,
      "일깨": 6929,
      "자세": 6930,
      "참나": 6931,
      "추리": 6932,
      "케릭터": 6933,
      "퓨터": 6934,
      "플롯": 6935,
      "하아": 6936,
      "해보": 6937,
      "주인공들": 6938,
      "별로고": 6939,
      "10점주는": 6940,
      "인생에": 6941,
      "모든걸": 6942,
      "가족의": 6943,
      "보았는데": 6944,
      "초딩때": 6945,
      "하나하나가": 6946,
      "1개": 6947,
      "개성": 6948,
      "길이": 6949,
      "달려": 6950,
      "맞은": 6951,
      "수있는": 6952,
      "시기": 6953,
      "심형래": 6954,
      "어여": 6955,
      "적어도": 6956,
      "찬란": 6957,
      "첨엔": 6958,
      "축구": 6959,
      "함의": 6960,
      "없는게": 6961,
      "정도면": 6962,
      "봐도봐도": 6963,
      "만든영화": 6964,
      "마음으로": 6965,
      "아쉬웠": 6966,
      "설정이": 6967,
      "이딴걸": 6968,
      "요소가": 6969,
      "피해자": 6970,
      "로버트": 6971,
      "터미네이터": 6972,
      "같았다": 6973,
      "교과": 6974,
      "대통령": 6975,
      "돋보이는": 6976,
      "디워": 6977,
      "몇년": 6978,
      "못하다": 6979,
      "미녀": 6980,
      "배트맨": 6981,
      "브라": 6982,
      "싸우는": 6983,
      "아우": 6984,
      "없나요": 6985,
      "우연": 6986,
      "위대": 6987,
      "이에": 6988,
      "쩌는": 6989,
      "컴퓨터": 6990,
      "티즌": 6991,
      "하품": 6992,
      "한방": 6993,
      "하고싶은": 6994,
      "들이랑": 6995,
      "괜찮음": 6996,
      "주고싶다": 6997,
      "다니는": 6998,
      "무서움": 6999,
      "나름대로": 7000,
      "출연한": 7001,
      "전쟁의": 7002,
      "다르게": 7003,
      "부끄러": 7004,
      "고등학교": 7005,
      "제이슨": 7006,
      "조니뎁": 7007,
      "거북": 7008,
      "굳굳": 7009,
      "끼워": 7010,
      "때매": 7011,
      "또다른": 7012,
      "마냥": 7013,
      "웃으면서": 7014,
      "익숙": 7015,
      "체가": 7016,
      "피스": 7017,
      "너무도": 7018,
      "최고로": 7019,
      "나오는데": 7020,
      "아이들과": 7021,
      "인데도": 7022,
      "여자들": 7023,
      "봐야하는": 7024,
      "포스터가": 7025,
      "귀엽다": 7026,
      "예쁘다": 7027,
      "그립다": 7028,
      "이소룡": 7029,
      "가벼운": 7030,
      "숨겨진": 7031,
      "1인": 7032,
      "2년": 7033,
      "6점대": 7034,
      "as": 7035,
      "가운": 7036,
      "덕에": 7037,
      "동양": 7038,
      "동원": 7039,
      "러시아": 7040,
      "밀려": 7041,
      "뱀파이어": 7042,
      "법한": 7043,
      "보영": 7044,
      "색이": 7045,
      "앞뒤": 7046,
      "위험": 7047,
      "이요": 7048,
      "일부러": 7049,
      "중학교": 7050,
      "착각": 7051,
      "하니까": 7052,
      "영화이": 7053,
      "사람이라면": 7054,
      "감독과": 7055,
      "기대없이": 7056,
      "이해를": 7057,
      "알았음": 7058,
      "아름답게": 7059,
      "여주인공이": 7060,
      "참신한": 7061,
      "마이너스": 7062,
      "dv": 7063,
      "거든": 7064,
      "그야말로": 7065,
      "김혜": 7066,
      "꼭보세요": 7067,
      "끝도": 7068,
      "나랑": 7069,
      "담아": 7070,
      "독일": 7071,
      "돈아까워": 7072,
      "떠올": 7073,
      "배신": 7074,
      "새로": 7075,
      "실험": 7076,
      "싫은": 7077,
      "오프": 7078,
      "정부": 7079,
      "찍는": 7080,
      "크리": 7081,
      "클래": 7082,
      "하러": 7083,
      "힘내": 7084,
      "으로만": 7085,
      "한국에서": 7086,
      "현실이": 7087,
      "짜증나고": 7088,
      "..........": 7089,
      "떨어짐": 7090,
      "모르겠네요": 7091,
      "치고는": 7092,
      "여러번": 7093,
      "단순히": 7094,
      "년도에": 7095,
      "몰랐다": 7096,
      "놀라운": 7097,
      "인터넷": 7098,
      "1년": 7099,
      "감안": 7100,
      "겠다는": 7101,
      "고어": 7102,
      "구역": 7103,
      "는대": 7104,
      "님들": 7105,
      "데미": 7106,
      "도와": 7107,
      "따분": 7108,
      "마르": 7109,
      "반대": 7110,
      "보셈": 7111,
      "애매": 7112,
      "월드": 7113,
      "의식": 7114,
      "인지도": 7115,
      "찾는": 7116,
      "판단": 7117,
      "마지막이": 7118,
      "ㅋㅋㅋㅋㅋㅋㅋㅋㅋ": 7119,
      "보지말": 7120,
      "재미없다고": 7121,
      "웃음만": 7122,
      "나이가": 7123,
      "궁금하다": 7124,
      "불쌍하다": 7125,
      "아쉬움이": 7126,
      "쓸데없이": 7127,
      "놀랍다": 7128,
      "해리포터": 7129,
      "-;": 7130,
      "-^": 7131,
      "2는": 7132,
      "2번": 7133,
      "게요": 7134,
      "경의": 7135,
      "그동안": 7136,
      "낸다": 7137,
      "돈으로": 7138,
      "말은": 7139,
      "멋지고": 7140,
      "무너": 7141,
      "보소": 7142,
      "보네요": 7143,
      "양아": 7144,
      "엇는데": 7145,
      "왜이러": 7146,
      "이은": 7147,
      "죽기": 7148,
      "중2": 7149,
      "컨셉": 7150,
      "흑인": 7151,
      "아니었다": 7152,
      "시간만": 7153,
      "마지막회": 7154,
      "한국의": 7155,
      "이해할수": 7156,
      "말이필요": 7157,
      "괜찮다": 7158,
      "보이지": 7159,
      "영화라서": 7160,
      "결론은": 7161,
      "후속작": 7162,
      "교과서": 7163,
      "16": 7164,
      "30년": 7165,
      "개노잼": 7166,
      "고딩": 7167,
      "글고": 7168,
      "내생에": 7169,
      "다리": 7170,
      "달콤": 7171,
      "대결": 7172,
      "박수": 7173,
      "배급": 7174,
      "번을": 7175,
      "빵점": 7176,
      "사운드": 7177,
      "승리": 7178,
      "으신": 7179,
      "이쁨": 7180,
      "이션": 7181,
      "이였다": 7182,
      "저급": 7183,
      "좋네": 7184,
      "좋다고": 7185,
      "치노": 7186,
      "클라": 7187,
      "트를": 7188,
      "편안": 7189,
      "풍자": 7190,
      "해지고": 7191,
      "호기": 7192,
      "시간때": 7193,
      "사랑하고": 7194,
      "액션과": 7195,
      "아깝네요": 7196,
      "한국영화의": 7197,
      "괜찮고": 7198,
      "소재와": 7199,
      "메이드": 7200,
      "제목만": 7201,
      "전체적인": 7202,
      "다르다": 7203,
      "살인마": 7204,
      "스포츠": 7205,
      "유일한": 7206,
      "특별한": 7207,
      "이뻐서": 7208,
      "오랫만에": 7209,
      "제니퍼": 7210,
      "우뢰매": 7211,
      "dvd": 7212,
      "2탄": 7213,
      "꽤나": 7214,
      "돈내고": 7215,
      "듯하다": 7216,
      "라의": 7217,
      "만도": 7218,
      "말투": 7219,
      "멋있는": 7220,
      "뭐임": 7221,
      "복을": 7222,
      "빠른": 7223,
      "수정": 7224,
      "시가": 7225,
      "었는지": 7226,
      "이준": 7227,
      "잖아요": 7228,
      "저기": 7229,
      "중훈": 7230,
      "지현": 7231,
      "하실": 7232,
      "하거나": 7233,
      "할거": 7234,
      "혹시나": 7235,
      "드라마로": 7236,
      "감독도": 7237,
      "만들어서": 7238,
      "1점은": 7239,
      "괜찮았다": 7240,
      "있었고": 7241,
      "제목을": 7242,
      "사실을": 7243,
      "않았지만": 7244,
      "이름이": 7245,
      "여러분": 7246,
      "드래곤": 7247,
      "갠적으로": 7248,
      "겨서": 7249,
      "로빈": 7250,
      "마무": 7251,
      "상수": 7252,
      "엑스": 7253,
      "올드": 7254,
      "울면서": 7255,
      "이였": 7256,
      "파치노": 7257,
      "편은": 7258,
      "평균": 7259,
      "할만한": 7260,
      "다시보고": 7261,
      "!!!!!!": 7262,
      "20년": 7263,
      "시나리오가": 7264,
      "나올때": 7265,
      "것만으로도": 7266,
      "가득한": 7267,
      "어우러": 7268,
      "장국영": 7269,
      "of": 7270,
      "걱정": 7271,
      "곳에": 7272,
      "김치": 7273,
      "난잡": 7274,
      "네티즌": 7275,
      "당황": 7276,
      "마니": 7277,
      "만하다": 7278,
      "맞고": 7279,
      "분량": 7280,
      "비중": 7281,
      "서울": 7282,
      "심으로": 7283,
      "안에서": 7284,
      "알겠다": 7285,
      "애초": 7286,
      "에효": 7287,
      "왤케": 7288,
      "주가": 7289,
      "질이": 7290,
      "트라": 7291,
      "편인데": 7292,
      "생각난다": 7293,
      "100점": 7294,
      "^^*": 7295,
      "1점을": 7296,
      "아무도": 7297,
      "당시에": 7298,
      "1편보다": 7299,
      "티비로": 7300,
      "궁금해서": 7301,
      "불쌍한": 7302,
      "자동차": 7303,
      "you": 7304,
      "가위": 7305,
      "같지": 7306,
      "겠죠": 7307,
      "끄는": 7308,
      "더더": 7309,
      "미는": 7310,
      "반드시": 7311,
      "부담": 7312,
      "빠르": 7313,
      "삶이": 7314,
      "수면": 7315,
      "스톤": 7316,
      "안봐도": 7317,
      "안본다": 7318,
      "어버린": 7319,
      "이성": 7320,
      "임창": 7321,
      "잊고": 7322,
      "장한": 7323,
      "재현": 7324,
      "지르": 7325,
      "팔이": 7326,
      "햇다": 7327,
      "혐오": 7328,
      "흐르는": 7329,
      "영화일": 7330,
      "재미있는데": 7331,
      "지금의": 7332,
      "느낌은": 7333,
      "10점이": 7334,
      "대사도": 7335,
      "만들었을까": 7336,
      "사이코": 7337,
      "어른이": 7338,
      "괜찮았는데": 7339,
      "리얼리티": 7340,
      "일깨워": 7341,
      "C급": 7342,
      "il": 7343,
      "to": 7344,
      "놈이": 7345,
      "라기": 7346,
      "모니": 7347,
      "박중훈": 7348,
      "번은": 7349,
      "보신": 7350,
      "스카": 7351,
      "아진짜": 7352,
      "안나오는": 7353,
      "우가": 7354,
      "주윤발": 7355,
      "하는건지": 7356,
      "하나는": 7357,
      "아무튼": 7358,
      "소리가": 7359,
      "작가의": 7360,
      "수작이다": 7361,
      "만드네": 7362,
      "TV에서": 7363,
      "거짓말": 7364,
      "?...": 7365,
      "가라": 7366,
      "남의": 7367,
      "넘넘": 7368,
      "다녀": 7369,
      "등록": 7370,
      "만난": 7371,
      "무게": 7372,
      "반담": 7373,
      "반도": 7374,
      "보려": 7375,
      "싶었던": 7376,
      "아야": 7377,
      "욕을": 7378,
      "위원": 7379,
      "장진": 7380,
      "지들": 7381,
      "지면": 7382,
      "지원": 7383,
      "드라마도": 7384,
      "내용의": 7385,
      "재미없을": 7386,
      "일본은": 7387,
      "짜증이": 7388,
      "필요가": 7389,
      "매력적이": 7390,
      "보게된": 7391,
      "스타뎀": 7392,
      "보시면": 7393,
      "어느정도": 7394,
      "의도가": 7395,
      "가면서": 7396,
      "개나": 7397,
      "과도": 7398,
      "구조": 7399,
      "긴하지만": 7400,
      "김태": 7401,
      "데뷔": 7402,
      "돼지": 7403,
      "될듯": 7404,
      "마자": 7405,
      "빨갱": 7406,
      "사로": 7407,
      "시스": 7408,
      "아놀": 7409,
      "압도": 7410,
      "앞에서": 7411,
      "요새": 7412,
      "일은": 7413,
      "크루즈": 7414,
      "트는": 7415,
      "함도": 7416,
      "희대의": 7417,
      "힘을": 7418,
      "OOOO": 7419,
      "보기가": 7420,
      "인생은": 7421,
      "수준을": 7422,
      "자체도": 7423,
      "배경이": 7424,
      "않았던": 7425,
      "이름을": 7426,
      "10년이": 7427,
      "불편한": 7428,
      "극복": 7429,
      "도무지": 7430,
      "드로": 7431,
      "마약": 7432,
      "뭐고": 7433,
      "민폐": 7434,
      "봤고": 7435,
      "봤나": 7436,
      "사용": 7437,
      "시오": 7438,
      "쓰지": 7439,
      "울리는": 7440,
      "이동": 7441,
      "이끌어": 7442,
      "자들이": 7443,
      "지네": 7444,
      "키드": 7445,
      "편의": 7446,
      "환경": 7447,
      "황당한": 7448,
      "영화지": 7449,
      "는데도": 7450,
      "있는영화": 7451,
      "사랑합니다": 7452,
      "반전에": 7453,
      "스릴도": 7454,
      "인간은": 7455,
      "매력에": 7456,
      "이제는": 7457,
      "떨어진": 7458,
      "정신이": 7459,
      "포스터에": 7460,
      "목소리가": 7461,
      "희망을": 7462,
      "영원한": 7463,
      "이도저도": 7464,
      "강렬한": 7465,
      "양아치": 7466,
      "4년": 7467,
      "8년": 7468,
      "^-^": 7469,
      "en": 7470,
      "개콘": 7471,
      "것처럼": 7472,
      "극단": 7473,
      "기존": 7474,
      "길을": 7475,
      "나루": 7476,
      "나았": 7477,
      "나레이션": 7478,
      "난리": 7479,
      "단체": 7480,
      "도로": 7481,
      "드니": 7482,
      "막히": 7483,
      "미니": 7484,
      "상실": 7485,
      "선을": 7486,
      "속이": 7487,
      "안나온다": 7488,
      "암걸": 7489,
      "어마": 7490,
      "없던": 7491,
      "열자": 7492,
      "이토록": 7493,
      "인권": 7494,
      "장동": 7495,
      "전화": 7496,
      "첨부터": 7497,
      "치면": 7498,
      "하균": 7499,
      "호구": 7500,
      "느낌이다": 7501,
      "기억나는": 7502,
      "최악의영화": 7503,
      "잔잔하게": 7504,
      "어야지": 7505,
      "세상이": 7506,
      "실화를": 7507,
      "잘못된": 7508,
      "탄탄하고": 7509,
      "뜬금없는": 7510,
      "지겹다": 7511,
      "간에": 7512,
      "기타": 7513,
      "꿈꾸": 7514,
      "내돈": 7515,
      "리암": 7516,
      "망친": 7517,
      "빛나는": 7518,
      "아리": 7519,
      "예수": 7520,
      "웨이": 7521,
      "유행": 7522,
      "음을": 7523,
      "인종": 7524,
      "자들의": 7525,
      "전의": 7526,
      "즐길": 7527,
      "직한": 7528,
      "쩔어": 7529,
      "한가": 7530,
      "한건지": 7531,
      "으로는": 7532,
      "남자주인공": 7533,
      "실망이다": 7534,
      "않은데": 7535,
      "시작해서": 7536,
      "시작부터": 7537,
      "거지같은": 7538,
      "시키지": 7539,
      "영상미가": 7540,
      "이하도": 7541,
      "귀여움": 7542,
      "개그맨": 7543,
      "허술한": 7544,
      "쓸데없는": 7545,
      "공짜로": 7546,
      "co": 7547,
      "각색": 7548,
      "그것이": 7549,
      "김희": 7550,
      "답게": 7551,
      "도를": 7552,
      "될수": 7553,
      "볼거": 7554,
      "부로": 7555,
      "빛을": 7556,
      "어떨": 7557,
      "원조": 7558,
      "으려고": 7559,
      "이렇": 7560,
      "인건": 7561,
      "잠이": 7562,
      "쟁이": 7563,
      "적절한": 7564,
      "짜릿": 7565,
      "찾아서": 7566,
      "최소한": 7567,
      "하는영화": 7568,
      "드라마다": 7569,
      "사람들을": 7570,
      "하지말고": 7571,
      "장면만": 7572,
      "재밌게봤어요": 7573,
      "인생이": 7574,
      "짜증만": 7575,
      "있었어요": 7576,
      "부분에서": 7577,
      "시리즈의": 7578,
      "느끼고": 7579,
      "역사상": 7580,
      "언제봐도": 7581,
      "어렵다": 7582,
      "짜집기": 7583,
      "9점대": 7584,
      "가게": 7585,
      "거장": 7586,
      "거품": 7587,
      "결정": 7588,
      "고뇌": 7589,
      "공룡": 7590,
      "다세포": 7591,
      "도둑": 7592,
      "들러": 7593,
      "력을": 7594,
      "리스트": 7595,
      "말인가": 7596,
      "못봐주": 7597,
      "박신": 7598,
      "보일": 7599,
      "본것": 7600,
      "사와": 7601,
      "싶습니다": 7602,
      "아라": 7603,
      "안가는": 7604,
      "애국": 7605,
      "웠습니다": 7606,
      "윌리스": 7607,
      "이여": 7608,
      "점수준": 7609,
      "주는데": 7610,
      "쯧쯧": 7611,
      "찾기": 7612,
      "치가": 7613,
      "트로": 7614,
      "평화": 7615,
      "하정우": 7616,
      "해줬": 7617,
      "보고있는데": 7618,
      "재미있었음": 7619,
      "작품입니다": 7620,
      "이해불가": 7621,
      "이상해": 7622,
      "만든거": 7623,
      "한번더": 7624,
      "추천하고": 7625,
      "영화라지만": 7626,
      "ㅋㅋㅋㅋㅋㅋㅋㅋㅋㅋㅋㅋㅋㅋㅋㅋㅋㅋㅋㅋㅋㅋㅋㅋㅋㅋㅋㅋㅋㅋㅋㅋ": 7627,
      "제작비가": 7628,
      "이병헌": 7629,
      "6년": 7630,
      "가시": 7631,
      "게스트": 7632,
      "과대": 7633,
      "구가": 7634,
      "대기": 7635,
      "동영상": 7636,
      "드디어": 7637,
      "들한테": 7638,
      "때의": 7639,
      "라노": 7640,
      "몽환": 7641,
      "무난": 7642,
      "미치는": 7643,
      "보지도": 7644,
      "뿐만": 7645,
      "상의": 7646,
      "시네": 7647,
      "심한": 7648,
      "아팠": 7649,
      "야한다": 7650,
      "엇음": 7651,
      "였으면": 7652,
      "예진": 7653,
      "와이": 7654,
      "일듯": 7655,
      "잃은": 7656,
      "적임": 7657,
      "졸업": 7658,
      "좋을듯": 7659,
      "영화란": 7660,
      "영화예요": 7661,
      "하고는": 7662,
      "재밌었던": 7663,
      "최고봉": 7664,
      "드라마에": 7665,
      "아니잖아": 7666,
      "유치해서": 7667,
      "이미지": 7668,
      "어쩌면": 7669,
      "오글거리는": 7670,
      "다행이다": 7671,
      "할리우드": 7672,
      "Good": 7673,
      "강간": 7674,
      "갖다": 7675,
      "격투": 7676,
      "그가": 7677,
      "끝나서": 7678,
      "나음": 7679,
      "다보고": 7680,
      "담담": 7681,
      "도아니고": 7682,
      "드문": 7683,
      "민족": 7684,
      "봤어": 7685,
      "세여": 7686,
      "안나옴": 7687,
      "오우": 7688,
      "욕이": 7689,
      "웠어요": 7690,
      "유덕화": 7691,
      "음식": 7692,
      "잘보고": 7693,
      "좋지": 7694,
      "죄송": 7695,
      "줄리": 7696,
      "탁월": 7697,
      "평소": 7698,
      "할아버지": 7699,
      "흑백": 7700,
      "흡입": 7701,
      "..!": 7702,
      "만들수": 7703,
      "한국판": 7704,
      "일본의": 7705,
      "전개는": 7706,
      "전개에": 7707,
      "볼만했다": 7708,
      "ㅜㅜㅜ": 7709,
      "시리즈를": 7710,
      "보게되는": 7711,
      "그렇지만": 7712,
      "조금은": 7713,
      "영화중에서": 7714,
      "나이트": 7715,
      "믿고보는": 7716,
      "못보겠다": 7717,
      "ut": 7718,
      "건강": 7719,
      "그것을": 7720,
      "기까지": 7721,
      "깡패": 7722,
      "담백": 7723,
      "도시": 7724,
      "리네": 7725,
      "말씀": 7726,
      "메리": 7727,
      "물어": 7728,
      "소통": 7729,
      "소화": 7730,
      "습니까": 7731,
      "어둡": 7732,
      "어쨌": 7733,
      "어거지": 7734,
      "왕국": 7735,
      "왠만한": 7736,
      "요리": 7737,
      "일에": 7738,
      "잘만들었다": 7739,
      "저평가": 7740,
      "전도": 7741,
      "절망": 7742,
      "준호": 7743,
      "지옥": 7744,
      "할뿐": 7745,
      "해선": 7746,
      "희가": 7747,
      "시간도": 7748,
      "재미있을": 7749,
      "다는거": 7750,
      "마지막엔": 7751,
      "인간들": 7752,
      "만들어라": 7753,
      "기도하고": 7754,
      "자기가": 7755,
      "알았네": 7756,
      "하시길": 7757,
      "빠져서": 7758,
      "상황을": 7759,
      "보고싶은데": 7760,
      "자극적인": 7761,
      "소중함을": 7762,
      "외계인": 7763,
      "둘째치고": 7764,
      "오프닝": 7765,
      "ht": 7766,
      "개똥": 7767,
      "공연": 7768,
      "기획": 7769,
      "김지": 7770,
      "내지": 7771,
      "넣은": 7772,
      "담긴": 7773,
      "도데": 7774,
      "모로": 7775,
      "무식": 7776,
      "뭐라고": 7777,
      "므로": 7778,
      "받았다": 7779,
      "버튼": 7780,
      "뻔했다": 7781,
      "송강호": 7782,
      "싶음": 7783,
      "안된": 7784,
      "안보는게": 7785,
      "외의": 7786,
      "의상": 7787,
      "인들의": 7788,
      "임에도": 7789,
      "재개봉": 7790,
      "적당한": 7791,
      "클리": 7792,
      "하디": 7793,
      "평점조절": 7794,
      "이런류의": 7795,
      "재미있었습니다": 7796,
      "좋아하지만": 7797,
      "현실과": 7798,
      "짜증나게": 7799,
      "공감도": 7800,
      "미국의": 7801,
      "장난하냐": 7802,
      "아버지가": 7803,
      "보고싶어요": 7804,
      "진지하게": 7805,
      "놀랐다": 7806,
      "제시카": 7807,
      "대고": 7808,
      "림이": 7809,
      "보이고": 7810,
      "봣다": 7811,
      "애를": 7812,
      "역을": 7813,
      "연습": 7814,
      "우선": 7815,
      "절정": 7816,
      "천만": 7817,
      "첩보": 7818,
      "햇는데": 7819,
      "드라마입니다": 7820,
      "다시보기": 7821,
      "기대가": 7822,
      "아이들의": 7823,
      "음악은": 7824,
      "영상도": 7825,
      "있었습니다": 7826,
      "어디로": 7827,
      "사람들에게": 7828,
      "만들었나": 7829,
      "라이즈": 7830,
      "포스터만": 7831,
      "2편이": 7832,
      "은근히": 7833,
      "겉멋": 7834,
      "깨알": 7835,
      "내생애": 7836,
      "답니다": 7837,
      "되었는데": 7838,
      "라스트": 7839,
      "명복을": 7840,
      "무겁": 7841,
      "무거운": 7842,
      "밝혀": 7843,
      "보느니": 7844,
      "봤는지": 7845,
      "부활": 7846,
      "빵빵": 7847,
      "성형": 7848,
      "스텔": 7849,
      "시종": 7850,
      "신을": 7851,
      "싸우": 7852,
      "엑소": 7853,
      "역량": 7854,
      "웰메이드": 7855,
      "이드라마": 7856,
      "잘한다": 7857,
      "제왕": 7858,
      "최소": 7859,
      "피터": 7860,
      "영화랑": 7861,
      "...^^": 7862,
      "들이나": 7863,
      "장면들이": 7864,
      "10점준": 7865,
      "여자를": 7866,
      "괜찮게": 7867,
      "애니는": 7868,
      "2012": 7869,
      "들어가": 7870,
      "요즘은": 7871,
      "하시고": 7872,
      "역겨운": 7873,
      "전반적으로": 7874,
      "화장실": 7875,
      "1회": 7876,
      "ㅎㄷㄷ": 7877,
      "개를": 7878,
      "고문": 7879,
      "교회": 7880,
      "구성도": 7881,
      "글을": 7882,
      "까지만": 7883,
      "나라는": 7884,
      "났음": 7885,
      "단어": 7886,
      "돌이": 7887,
      "든가": 7888,
      "때부터": 7889,
      "래도": 7890,
      "랜드": 7891,
      "로의": 7892,
      "리며": 7893,
      "말밖에": 7894,
      "맡은": 7895,
      "물로": 7896,
      "뮤직": 7897,
      "생의": 7898,
      "선정": 7899,
      "소피": 7900,
      "스와": 7901,
      "안맞는": 7902,
      "었을까": 7903,
      "웃을": 7904,
      "일베": 7905,
      "잊을수": 7906,
      "저러": 7907,
      "졌음": 7908,
      "지경": 7909,
      "지우": 7910,
      "쳐도": 7911,
      "킬러": 7912,
      "트와": 7913,
      "틈이": 7914,
      "판이": 7915,
      "황정": 7916,
      "드라마중": 7917,
      "만들기": 7918,
      "보는것": 7919,
      "기대이하": 7920,
      "모르겟": 7921,
      "있었으면": 7922,
      "소리만": 7923,
      "어이없음": 7924,
      "무엇인가": 7925,
      "보지마셈": 7926,
      "진지한": 7927,
      "누군지": 7928,
      "가까운": 7929,
      "고양이": 7930,
      "애초에": 7931,
      "->": 7932,
      "80": 7933,
      "ow": 7934,
      "ㄱㄱ": 7935,
      "ㅜㅠ": 7936,
      "낮네요": 7937,
      "늑대": 7938,
      "되어야": 7939,
      "둥이": 7940,
      "듣기": 7941,
      "만세": 7942,
      "분장": 7943,
      "불안": 7944,
      "실수": 7945,
      "의사": 7946,
      "이수": 7947,
      "잠을": 7948,
      "직업": 7949,
      "파격": 7950,
      "할수가": 7951,
      "했다가": 7952,
      "이해도": 7953,
      "명작은": 7954,
      "스러워": 7955,
      "모습은": 7956,
      "만큼이나": 7957,
      "어이없다": 7958,
      "세상에서": 7959,
      "더빙이": 7960,
      "3년": 7961,
      "ㅈㄴ": 7962,
      "가자": 7963,
      "극의": 7964,
      "께요": 7965,
      "당하고": 7966,
      "대부": 7967,
      "던져": 7968,
      "됐는데": 7969,
      "되어서": 7970,
      "디카": 7971,
      "망할": 7972,
      "매끄": 7973,
      "멋짐": 7974,
      "멋있고": 7975,
      "모른다": 7976,
      "못해서": 7977,
      "민주": 7978,
      "보나": 7979,
      "부지": 7980,
      "브로": 7981,
      "사에": 7982,
      "실감": 7983,
      "안들": 7984,
      "영구": 7985,
      "웃었다": 7986,
      "원숭": 7987,
      "이들의": 7988,
      "자아": 7989,
      "전이": 7990,
      "절대로": 7991,
      "중딩": 7992,
      "지다": 7993,
      "치유": 7994,
      "캐릭": 7995,
      "한순간": 7996,
      "향연": 7997,
      "흔들": 7998,
      "최고네요": 7999,
      "같은영화": 8000,
      "모르지만": 8001,
      "아이를": 8002,
      "아이언": 8003,
      "볼만합니다": 8004,
      "재밋고": 8005,
      "배우들을": 8006,
      "공감할": 8007,
      "시대가": 8008,
      "만화책": 8009,
      "당신이": 8010,
      ";;;;;;;;": 8011,
      "보아도": 8012,
      "풋풋한": 8013,
      "설득력": 8014,
      "류승범": 8015,
      "어두운": 8016,
      "나루토": 8017,
      "가히": 8018,
      "거기다": 8019,
      "나을듯": 8020,
      "달아": 8021,
      "되요": 8022,
      "뒤죽": 8023,
      "들로": 8024,
      "뜨고": 8025,
      "마녀": 8026,
      "매미": 8027,
      "명불": 8028,
      "모아": 8029,
      "부산": 8030,
      "브래": 8031,
      "생명": 8032,
      "선사": 8033,
      "수없는": 8034,
      "심은": 8035,
      "아지": 8036,
      "외에는": 8037,
      "울었어요": 8038,
      "원주": 8039,
      "재방": 8040,
      "졸잼": 8041,
      "준비": 8042,
      "진이": 8043,
      "천원": 8044,
      "한줄": 8045,
      "영화보다가": 8046,
      "~~^^": 8047,
      "사람만": 8048,
      "좋았을텐데": 8049,
      "하기에": 8050,
      "다운받아서": 8051,
      "연기력에": 8052,
      "엄청나게": 8053,
      "아쉬워요": 8054,
      "ㄷㄷㄷㄷ": 8055,
      "레이드": 8056,
      "감동적이네요": 8057,
      "배경으로": 8058,
      "귀여워요": 8059,
      "하자면": 8060,
      "교훈도": 8061,
      "아프고": 8062,
      "메세지": 8063,
      "흘러가는": 8064,
      "소장하고": 8065,
      "감명깊게": 8066,
      "도데체": 8067,
      "17": 8068,
      "25": 8069,
      "ck": 8070,
      "가정": 8071,
      "공중": 8072,
      "그로": 8073,
      "그들이": 8074,
      "놀이": 8075,
      "똑같이": 8076,
      "란티": 8077,
      "리면": 8078,
      "마누": 8079,
      "마법": 8080,
      "말라": 8081,
      "말그대로": 8082,
      "망치": 8083,
      "맞춘": 8084,
      "매번": 8085,
      "뭐여": 8086,
      "미야": 8087,
      "속았다": 8088,
      "스턴": 8089,
      "스필": 8090,
      "슨이": 8091,
      "심하다": 8092,
      "엘리": 8093,
      "엽기": 8094,
      "운명": 8095,
      "워즈": 8096,
      "일주": 8097,
      "자와": 8098,
      "저것": 8099,
      "주네": 8100,
      "중학생": 8101,
      "줘야지": 8102,
      "찬양": 8103,
      "호흡": 8104,
      "홍상수": 8105,
      "하는가": 8106,
      "기대하지": 8107,
      "소재의": 8108,
      "재밋는": 8109,
      "싶다면": 8110,
      "대박이다": 8111,
      "캐릭터들이": 8112,
      "알바가": 8113,
      "웃기는": 8114,
      "어디가": 8115,
      "캐스팅이": 8116,
      "인상적인": 8117,
      "유쾌하게": 8118,
      "보았던": 8119,
      "순수하고": 8120,
      "아까워서": 8121,
      "좋겠습니다": 8122,
      "허무한": 8123,
      "괜찮았음": 8124,
      "12세": 8125,
      "한심하다": 8126,
      "뜬금없이": 8127,
      "산만하고": 8128,
      "하이틴": 8129,
      "입장에서": 8130,
      "뒤죽박": 8131,
      "고독": 8132,
      "남기는": 8133,
      "더군": 8134,
      "도의": 8135,
      "되었습니다": 8136,
      "리나": 8137,
      "맞게": 8138,
      "무간": 8139,
      "반영": 8140,
      "방해": 8141,
      "배꼽": 8142,
      "별거": 8143,
      "불과": 8144,
      "빈약": 8145,
      "삶과": 8146,
      "서도": 8147,
      "선이": 8148,
      "스에": 8149,
      "슨의": 8150,
      "시점": 8151,
      "신하균": 8152,
      "안했는데": 8153,
      "않아요": 8154,
      "예측": 8155,
      "이별": 8156,
      "이만한": 8157,
      "인류": 8158,
      "적으론": 8159,
      "정당": 8160,
      "키아": 8161,
      "터지는": 8162,
      "프리오": 8163,
      "하드": 8164,
      "생각나": 8165,
      "다는걸": 8166,
      "액션씬": 8167,
      "아무생각없이": 8168,
      "만들어낸": 8169,
      "캐릭터도": 8170,
      "제목은": 8171,
      "다니엘": 8172,
      "강추합니다": 8173,
      "답답하다": 8174,
      "초반부": 8175,
      "충격적인": 8176,
      "오글오글": 8177,
      "시키고": 8178,
      "당신의": 8179,
      "낮은지": 8180,
      "맞추기": 8181,
      "스파이더": 8182,
      "명불허전": 8183,
      "2가": 8184,
      "EBS": 8185,
      "★★": 8186,
      "가네": 8187,
      "갈때": 8188,
      "것과": 8189,
      "공유": 8190,
      "극을": 8191,
      "극혐": 8192,
      "극히": 8193,
      "놀란": 8194,
      "놀래": 8195,
      "높지": 8196,
      "마시길": 8197,
      "많네": 8198,
      "맞나": 8199,
      "모욕": 8200,
      "배가": 8201,
      "보겠다": 8202,
      "살이": 8203,
      "애틋": 8204,
      "우디": 8205,
      "웠고": 8206,
      "이든": 8207,
      "잖은": 8208,
      "잘만들었": 8209,
      "잠시": 8210,
      "잼있는": 8211,
      "절제": 8212,
      "졸리": 8213,
      "중년": 8214,
      "짱이다": 8215,
      "형이": 8216,
      "~~~~~": 8217,
      "하나요": 8218,
      "나오네요": 8219,
      "연출력이": 8220,
      "괜찮네요": 8221,
      "공포를": 8222,
      "현실적이": 8223,
      "유치해": 8224,
      "...........": 8225,
      "개봉한": 8226,
      "표현이": 8227,
      "언제까지": 8228,
      "보고싶네요": 8229,
      "하던가": 8230,
      "세월이": 8231,
      "1등": 8232,
      "4편": 8233,
      "am": 8234,
      "dd": 8235,
      "객관": 8236,
      "거같아요": 8237,
      "고증": 8238,
      "권력": 8239,
      "남고": 8240,
      "놈들이": 8241,
      "놈들은": 8242,
      "놨네": 8243,
      "듣는": 8244,
      "립니다": 8245,
      "뭐하는": 8246,
      "발음": 8247,
      "빠지게": 8248,
      "소유": 8249,
      "신도": 8250,
      "신인": 8251,
      "신화": 8252,
      "안다": 8253,
      "암울": 8254,
      "어정": 8255,
      "외엔": 8256,
      "음향": 8257,
      "이승": 8258,
      "이종": 8259,
      "이영화에": 8260,
      "있긴": 8261,
      "즐기": 8262,
      "지요": 8263,
      "짬뽕": 8264,
      "칭찬": 8265,
      "타는": 8266,
      "트랜": 8267,
      "특집": 8268,
      "연기만": 8269,
      "생각만": 8270,
      "시간은": 8271,
      "아이들에게": 8272,
      "아이디어": 8273,
      "말이필요없다": 8274,
      "부터는": 8275,
      "현실은": 8276,
      "ㅋㅋㅋㅋㅋㅋㅋㅋㅋㅋ": 8277,
      "가족을": 8278,
      "조금만": 8279,
      "관객이": 8280,
      "문제를": 8281,
      "사회의": 8282,
      "으면서도": 8283,
      "이것보단": 8284,
      "말아야": 8285,
      "미소가": 8286,
      "뒤죽박죽": 8287,
      "90분": 8288,
      "?..": 8289,
      "가에": 8290,
      "감과": 8291,
      "곳이": 8292,
      "국어": 8293,
      "긴박": 8294,
      "낫겠다": 8295,
      "닥치고": 8296,
      "달리는": 8297,
      "당하는": 8298,
      "맙시다": 8299,
      "멋져요": 8300,
      "못하겠다": 8301,
      "문득": 8302,
      "뭐하자는": 8303,
      "민이": 8304,
      "반응": 8305,
      "발상": 8306,
      "별점이": 8307,
      "분한": 8308,
      "비록": 8309,
      "소개": 8310,
      "싶지만": 8311,
      "애잔": 8312,
      "억울": 8313,
      "여신": 8314,
      "왕조": 8315,
      "이스": 8316,
      "있으나": 8317,
      "자로": 8318,
      "저냥": 8319,
      "적이라": 8320,
      "첨이다": 8321,
      "콜린": 8322,
      "하더니": 8323,
      "..-": 8324,
      "영화속": 8325,
      "액션의": 8326,
      "별로였다": 8327,
      "라는게": 8328,
      "공포는": 8329,
      "아무나": 8330,
      "실망이": 8331,
      "캐릭터들": 8332,
      "모습에": 8333,
      "흥미를": 8334,
      "할수있는": 8335,
      "모르겠네": 8336,
      "장난하나": 8337,
      "시절의": 8338,
      "설정은": 8339,
      "나올까": 8340,
      "어울리지": 8341,
      "의도는": 8342,
      "그림체": 8343,
      "아마추": 8344,
      "형편없는": 8345,
      "ovie": 8346,
      "란티노": 8347,
      "어정쩡": 8348,
      "9년": 8349,
      "같애": 8350,
      "같다는": 8351,
      "괜찬": 8352,
      "끝을": 8353,
      "나왓": 8354,
      "넘은": 8355,
      "대학": 8356,
      "또봐도": 8357,
      "럽지": 8358,
      "로망": 8359,
      "리엄": 8360,
      "말까": 8361,
      "머야": 8362,
      "먹칠": 8363,
      "모독": 8364,
      "묘하게": 8365,
      "본능": 8366,
      "봤다는": 8367,
      "부자연": 8368,
      "비하": 8369,
      "비호감": 8370,
      "빕니다": 8371,
      "선수": 8372,
      "셔야": 8373,
      "아바": 8374,
      "알파치노": 8375,
      "애들도": 8376,
      "왠만": 8377,
      "운동": 8378,
      "워낙": 8379,
      "이영화의": 8380,
      "인게": 8381,
      "전을": 8382,
      "영화같다": 8383,
      "~~!!": 8384,
      "까지도": 8385,
      "이거보단": 8386,
      "여자들이": 8387,
      "만들어주": 8388,
      "억지감동": 8389,
      "시리즈가": 8390,
      "나왔음": 8391,
      "2점부터": 8392,
      "멋지게": 8393,
      "블랙코미디": 8394,
      "우려먹": 8395,
      "피아노": 8396,
      "바탕으로": 8397,
      "스파이더맨": 8398,
      "가리": 8399,
      "권상": 8400,
      "난무": 8401,
      "당할": 8402,
      "두개": 8403,
      "드를": 8404,
      "들지": 8405,
      "몰아": 8406,
      "버리지": 8407,
      "분의": 8408,
      "쉬운": 8409,
      "스펙": 8410,
      "싶으면": 8411,
      "아카": 8412,
      "안어울": 8413,
      "옆에": 8414,
      "일의": 8415,
      "재앙": 8416,
      "질을": 8417,
      "총체": 8418,
      "커녕": 8419,
      "타란티노": 8420,
      "통수": 8421,
      "할것": 8422,
      "호불": 8423,
      "영화들이": 8424,
      "생각은": 8425,
      "하지원": 8426,
      "마지막은": 8427,
      "공포가": 8428,
      "ㅋㅋㅋㅋㅋㅋㅋㅋㅋㅋㅋ": 8429,
      "캐릭터는": 8430,
      "스타워즈": 8431,
      "느껴졌다": 8432,
      "무섭게": 8433,
      "결국은": 8434,
      "하하하하": 8435,
      "받아야": 8436,
      "웃겨서": 8437,
      "새끼들": 8438,
      "어설프다": 8439,
      "데이빗": 8440,
      "나머지는": 8441,
      "시종일관": 8442,
      "디카프리오": 8443,
      "가가": 8444,
      "극중": 8445,
      "기괴": 8446,
      "남았": 8447,
      "남친": 8448,
      "내시간": 8449,
      "는건": 8450,
      "닥터": 8451,
      "담고": 8452,
      "대에": 8453,
      "동감": 8454,
      "되야": 8455,
      "로로": 8456,
      "롭고": 8457,
      "머냐": 8458,
      "머릿": 8459,
      "멋져": 8460,
      "명대사": 8461,
      "빠순": 8462,
      "성인이": 8463,
      "승전": 8464,
      "시험": 8465,
      "아만다": 8466,
      "어떠": 8467,
      "어차": 8468,
      "영의": 8469,
      "왔어요": 8470,
      "입고": 8471,
      "제국": 8472,
      "짓을": 8473,
      "차승": 8474,
      "토니": 8475,
      "트릭": 8476,
      "판을": 8477,
      "허나": 8478,
      "영화같은": 8479,
      "정말정말": 8480,
      "연기의": 8481,
      "연기하는": 8482,
      "재미있었는데": 8483,
      "사랑스럽고": 8484,
      "쓰레기를": 8485,
      "아이유": 8486,
      "재미없네요": 8487,
      "여자주인공": 8488,
      "그런거": 8489,
      "긴장감을": 8490,
      "웃음을": 8491,
      "감동적이에요": 8492,
      "만드냐": 8493,
      "아닌가요": 8494,
      "아버지의": 8495,
      "영화인것": 8496,
      "필요한가": 8497,
      "섬세한": 8498,
      "역겹다": 8499,
      "파워레인": 8500,
      "ay": 8501,
      "ㅠ_": 8502,
      "가며": 8503,
      "꺼면": 8504,
      "낮추": 8505,
      "라에": 8506,
      "레옹": 8507,
      "밑도": 8508,
      "보임": 8509,
      "본적이": 8510,
      "부정": 8511,
      "살리지": 8512,
      "상대": 8513,
      "상징": 8514,
      "석규": 8515,
      "소가": 8516,
      "스틱": 8517,
      "쓸쓸": 8518,
      "없어도": 8519,
      "에라이": 8520,
      "연관": 8521,
      "였어": 8522,
      "우의": 8523,
      "작정": 8524,
      "잼씀": 8525,
      "좋으나": 8526,
      "주온": 8527,
      "쥬얼": 8528,
      "즈의": 8529,
      "초월": 8530,
      "치의": 8531,
      "태현": 8532,
      "피식": 8533,
      "영화적": 8534,
      "재밌었": 8535,
      "사랑스럽다": 8536,
      "1점이": 8537,
      "영상은": 8538,
      "극장에": 8539,
      "캐릭터를": 8540,
      "남는게": 8541,
      "떨어뜨": 8542,
      "나와야": 8543,
      "제목에": 8544,
      "미국식": 8545,
      "행복하게": 8546,
      "오래전에": 8547,
      "CG가": 8548,
      "아빠가": 8549,
      "메시지": 8550,
      "슈퍼맨": 8551,
      "오로지": 8552,
      "40분": 8553,
      "7광": 8554,
      "ch": 8555,
      "od": 8556,
      "~♥": 8557,
      "가는데": 8558,
      "걸린": 8559,
      "구리": 8560,
      "끝남": 8561,
      "내서": 8562,
      "노무": 8563,
      "놈의": 8564,
      "님은": 8565,
      "물고": 8566,
      "물에": 8567,
      "물의": 8568,
      "뭐랄까": 8569,
      "미션": 8570,
      "민의": 8571,
      "본격": 8572,
      "볼줄": 8573,
      "살았": 8574,
      "우린": 8575,
      "의해": 8576,
      "인한": 8577,
      "있어도": 8578,
      "잘해": 8579,
      "적을": 8580,
      "조낸": 8581,
      "지상": 8582,
      "첨으로": 8583,
      "컬트": 8584,
      "코스": 8585,
      "한시간": 8586,
      "할줄": 8587,
      "홀로": 8588,
      "흉내": 8589,
      "흑흑": 8590,
      "보고난": 8591,
      "보고있어요": 8592,
      "없는듯": 8593,
      "있는가": 8594,
      "쓰레기는": 8595,
      "다시금": 8596,
      "이거나": 8597,
      "이야기의": 8598,
      "재밌게봤는데": 8599,
      "들어간": 8600,
      "살아있는": 8601,
      "잼있네요": 8602,
      "문제는": 8603,
      "상황이": 8604,
      "삼류영화": 8605,
      "................................": 8606,
      "홍콩영화": 8607,
      "환상적인": 8608,
      "미스테": 8609,
      "페이크": 8610,
      "es": 8611,
      "과정이": 8612,
      "남성": 8613,
      "눈으로": 8614,
      "능가": 8615,
      "당장": 8616,
      "되길": 8617,
      "된게": 8618,
      "딸이": 8619,
      "마찬": 8620,
      "마저도": 8621,
      "문에": 8622,
      "바라는": 8623,
      "받지": 8624,
      "비쥬얼": 8625,
      "상어": 8626,
      "순위": 8627,
      "씨도": 8628,
      "않습니다": 8629,
      "없었는데": 8630,
      "여기에": 8631,
      "올레": 8632,
      "완젼": 8633,
      "이탈": 8634,
      "작가는": 8635,
      "정사": 8636,
      "정석": 8637,
      "졌던": 8638,
      "진창": 8639,
      "커버": 8640,
      "타쿠": 8641,
      "태국": 8642,
      "펼쳐": 8643,
      "피어": 8644,
      "한석규": 8645,
      "해줄": 8646,
      "활용": 8647,
      "황금": 8648,
      "너무하네": 8649,
      "하는것도": 8650,
      "보고나니": 8651,
      "사람에게": 8652,
      "감동입니다": 8653,
      "정도다": 8654,
      "10점준다": 8655,
      "보여줄": 8656,
      "모든것이": 8657,
      "들어도": 8658,
      "아쉬울": 8659,
      "안되네": 8660,
      "무서웠": 8661,
      "영화라면": 8662,
      "만들었냐": 8663,
      "충격적이": 8664,
      "만드나": 8665,
      "성룡의": 8666,
      "가치도": 8667,
      "독특하고": 8668,
      "15세": 8669,
      "관심이": 8670,
      ".-": 8671,
      "MB": 8672,
      "bad": 8673,
      "간히": 8674,
      "건질": 8675,
      "게리": 8676,
      "고요": 8677,
      "그는": 8678,
      "기에는": 8679,
      "낚이지": 8680,
      "놈은": 8681,
      "느냐": 8682,
      "달라고": 8683,
      "더라고": 8684,
      "리언": 8685,
      "리한": 8686,
      "만났": 8687,
      "멋잇": 8688,
      "면을": 8689,
      "명장면": 8690,
      "무어": 8691,
      "불법": 8692,
      "쉽지": 8693,
      "십점": 8694,
      "안봐서": 8695,
      "어수": 8696,
      "오리지": 8697,
      "원하는": 8698,
      "의한": 8699,
      "있으니": 8700,
      "있겠지만": 8701,
      "장군": 8702,
      "조기": 8703,
      "차이가": 8704,
      "코드가": 8705,
      "틀림": 8706,
      "한개": 8707,
      "합시다": 8708,
      "해져": 8709,
      "있는거": 8710,
      "지루하기": 8711,
      "되는거": 8712,
      "유치찬란": 8713,
      "남자는": 8714,
      "보이지만": 8715,
      "나왔던": 8716,
      "한테는": 8717,
      "의미도": 8718,
      "1편에": 8719,
      "살아야": 8720,
      "전쟁영화": 8721,
      "않았음": 8722,
      "힘들었다": 8723,
      "세계를": 8724,
      "그리워": 8725,
      "생각해보게": 8726,
      "풀어낸": 8727,
      "미안하다": 8728,
      "ig": 8729,
      "movie": 8730,
      "가만": 8731,
      "각각": 8732,
      "곳에서": 8733,
      "그대": 8734,
      "넘어서": 8735,
      "녹아": 8736,
      "늙은": 8737,
      "니네": 8738,
      "다름": 8739,
      "다이하": 8740,
      "또라이": 8741,
      "마블": 8742,
      "만원": 8743,
      "맞다": 8744,
      "못하네": 8745,
      "미학": 8746,
      "박보영": 8747,
      "배는": 8748,
      "빠질": 8749,
      "사과": 8750,
      "섬뜩": 8751,
      "시켰": 8752,
      "신데": 8753,
      "싶게": 8754,
      "싶었는데": 8755,
      "쏟아": 8756,
      "쓰나": 8757,
      "안보면": 8758,
      "았음": 8759,
      "어딘": 8760,
      "연상": 8761,
      "열라": 8762,
      "열받": 8763,
      "였나": 8764,
      "옵니다": 8765,
      "용기": 8766,
      "이죠": 8767,
      "인연": 8768,
      "재탕": 8769,
      "잼나": 8770,
      "조한": 8771,
      "지키": 8772,
      "진수": 8773,
      "책으로": 8774,
      "치료": 8775,
      "패션": 8776,
      "한동안": 8777,
      "해놓고": 8778,
      "핸드": 8779,
      "연기로": 8780,
      "스토리로": 8781,
      "사람과": 8782,
      "있는게": 8783,
      "10번": 8784,
      "아깝습니다": 8785,
      "주인공들이": 8786,
      "대사와": 8787,
      "느껴지지": 8788,
      "할수도": 8789,
      "만화를": 8790,
      "역사에": 8791,
      "분위기는": 8792,
      "여러모로": 8793,
      "엉망진창": 8794,
      "시도는": 8795,
      "깔끔한": 8796,
      "오그라드는": 8797,
      "조잡한": 8798,
      "박진감": 8799,
      "중2병": 8800,
      "마무리가": 8801,
      "키아누": 8802,
      "8점은": 8803,
      ">>": 8804,
      "감성을": 8805,
      "겠어": 8806,
      "날이": 8807,
      "넣어": 8808,
      "데스": 8809,
      "동근": 8810,
      "디자": 8811,
      "레오": 8812,
      "리네요": 8813,
      "맛에": 8814,
      "매주": 8815,
      "몸에": 8816,
      "미쳐": 8817,
      "부르는": 8818,
      "사장": 8819,
      "상식": 8820,
      "새삼": 8821,
      "소지": 8822,
      "시면": 8823,
      "심사": 8824,
      "안봄": 8825,
      "앞서": 8826,
      "역작": 8827,
      "웃는": 8828,
      "장을": 8829,
      "주려고": 8830,
      "커서": 8831,
      "크다": 8832,
      "포켓": 8833,
      "픽션": 8834,
      "혼란": 8835,
      "...!": 8836,
      "최고라고": 8837,
      "드라마라고": 8838,
      "었다는": 8839,
      "같은거": 8840,
      "주인공들의": 8841,
      "이야기도": 8842,
      "10점은": 8843,
      "이상하다": 8844,
      "애니를": 8845,
      "2015": 8846,
      "부분에": 8847,
      "개봉당시": 8848,
      "어디에": 8849,
      "개인적인": 8850,
      "영화였는데": 8851,
      "초반엔": 8852,
      "지루함을": 8853,
      "이딴게": 8854,
      "분들께": 8855,
      "ㅇㅇㅇㅇ": 8856,
      "진실을": 8857,
      "ost도": 8858,
      "연기자들": 8859,
      "그려낸": 8860,
      "김수현": 8861,
      "90": 8862,
      "el": 8863,
      "mb": 8864,
      "가다": 8865,
      "것인지": 8866,
      "관점": 8867,
      "깜놀": 8868,
      "꺼야": 8869,
      "날아": 8870,
      "납득": 8871,
      "니들이": 8872,
      "다코": 8873,
      "되네": 8874,
      "된다고": 8875,
      "두시간": 8876,
      "마을": 8877,
      "말에": 8878,
      "맞음": 8879,
      "무의미": 8880,
      "박시": 8881,
      "박찬": 8882,
      "방향": 8883,
      "속을": 8884,
      "숨은": 8885,
      "신부": 8886,
      "심에": 8887,
      "알앗": 8888,
      "에드": 8889,
      "오직": 8890,
      "울게": 8891,
      "으러": 8892,
      "으셨": 8893,
      "있나요": 8894,
      "작화": 8895,
      "잘함": 8896,
      "재수": 8897,
      "졌어요": 8898,
      "졌으면": 8899,
      "조지": 8900,
      "좋더라": 8901,
      "주행": 8902,
      "죽인": 8903,
      "쩌네": 8904,
      "차원": 8905,
      "포함": 8906,
      "홧팅": 8907,
      "후하게": 8908,
      "희의": 8909,
      "히히": 8910,
      "최고에요": 8911,
      "하나가": 8912,
      "이거보다": 8913,
      "액션만": 8914,
      "보여서": 8915,
      "음악을": 8916,
      "가장한": 8917,
      "아니라면": 8918,
      "노잼노잼": 8919,
      "장르를": 8920,
      "시즌3": 8921,
      "귀신이": 8922,
      "죽음을": 8923,
      "잊지못할": 8924,
      "소름끼치는": 8925,
      "웃겼다": 8926,
      "고등학생": 8927,
      "클레멘타인": 8928,
      "왕조현": 8929,
      "어수선": 8930,
      "ed": 8931,
      "가짜": 8932,
      "강동원": 8933,
      "거같은데": 8934,
      "고은": 8935,
      "껐다": 8936,
      "끄고": 8937,
      "낭만": 8938,
      "넘치고": 8939,
      "니들": 8940,
      "덩어리": 8941,
      "된장": 8942,
      "될까": 8943,
      "런닝": 8944,
      "렸던": 8945,
      "머가": 8946,
      "미의": 8947,
      "뻔하다": 8948,
      "살렸다": 8949,
      "소리는": 8950,
      "수밖에": 8951,
      "안보는": 8952,
      "얘기를": 8953,
      "어어": 8954,
      "오해": 8955,
      "온갖": 8956,
      "완성": 8957,
      "이것은": 8958,
      "읽는": 8959,
      "잼없다": 8960,
      "지니": 8961,
      "짱임": 8962,
      "추가": 8963,
      "한효": 8964,
      "혁명": 8965,
      "후속편": 8966,
      "히고": 8967,
      "감동이다": 8968,
      "아니냐": 8969,
      "최악임": 8970,
      "별로네요": 8971,
      "이상으로": 8972,
      "아이디": 8973,
      "재밋네요": 8974,
      "나오는거": 8975,
      "스러웠다": 8976,
      "이라는게": 8977,
      "해야하나": 8978,
      "1편의": 8979,
      "만들었으면": 8980,
      "뛰어넘는": 8981,
      "자연스럽게": 8982,
      "상영관": 8983,
      "tv에서": 8984,
      "참고로": 8985,
      "짱짱맨": 8986,
      "취향이": 8987,
      "하겠습니다": 8988,
      "후반부에": 8989,
      "알려주는": 8990,
      "더러워": 8991,
      "로맨틱코미디": 8992,
      "그럴듯": 8993,
      "미스캐스팅": 8994,
      "거기서": 8995,
      "테이큰": 8996,
      "임팩트": 8997,
      "임창정": 8998,
      "브래드": 8999,
      "ㅠ_ㅠ": 9000,
      "포켓몬": 9001,
      "5개": 9002,
      "500": 9003,
      "ic": 9004,
      "가를": 9005,
      "감성이": 9006,
      "갖춘": 9007,
      "개꿀잼": 9008,
      "거듭": 9009,
      "고스": 9010,
      "구경": 9011,
      "구멍": 9012,
      "까는": 9013,
      "넘쳐": 9014,
      "녀석": 9015,
      "노동": 9016,
      "동일": 9017,
      "떡밥": 9018,
      "라지만": 9019,
      "리와": 9020,
      "만날": 9021,
      "매이션": 9022,
      "멈추": 9023,
      "멘탈": 9024,
      "미를": 9025,
      "미술": 9026,
      "바란다": 9027,
      "보석": 9028,
      "봣어요": 9029,
      "비에": 9030,
      "비해서": 9031,
      "살리": 9032,
      "생기": 9033,
      "세이": 9034,
      "소문": 9035,
      "소소": 9036,
      "소품": 9037,
      "쓰러": 9038,
      "안의": 9039,
      "안나오고": 9040,
      "어땠": 9041,
      "어용": 9042,
      "엄정화": 9043,
      "에다": 9044,
      "연인": 9045,
      "오고": 9046,
      "웃다가": 9047,
      "이었던": 9048,
      "일지": 9049,
      "잡은": 9050,
      "죽일": 9051,
      "지말고": 9052,
      "창피": 9053,
      "치를": 9054,
      "팍팍": 9055,
      "하구만": 9056,
      "하더라도": 9057,
      "화질": 9058,
      "회가": 9059,
      "회사": 9060,
      "하는구나": 9061,
      "스토리나": 9062,
      "있는듯": 9063,
      "었다고": 9064,
      "좋아하네요": 9065,
      "작품에": 9066,
      "느낌도": 9067,
      "유치원": 9068,
      "하기는": 9069,
      "재밋는데": 9070,
      "억지스럽고": 9071,
      "봐야겠다": 9072,
      "나와도": 9073,
      "사람들도": 9074,
      "만화가": 9075,
      "인상적": 9076,
      "나이에": 9077,
      "몰입도도": 9078,
      "빠져들": 9079,
      "충분한": 9080,
      "19금": 9081,
      "감동도없고": 9082,
      "감독님의": 9083,
      "싫어하는": 9084,
      "말아먹": 9085,
      "취향은": 9086,
      "완성도가": 9087,
      "느낀다": 9088,
      "상처를": 9089,
      "기발한": 9090,
      "2014년": 9091,
      "아바타": 9092,
      "마찬가지": 9093,
      "3분": 9094,
      "70": 9095,
      "거라고": 9096,
      "고한": 9097,
      "국산": 9098,
      "기위해": 9099,
      "나비": 9100,
      "나을": 9101,
      "노는": 9102,
      "더스": 9103,
      "뒤늦게": 9104,
      "때리고": 9105,
      "런닝타임": 9106,
      "레드": 9107,
      "롭게": 9108,
      "마마": 9109,
      "막힌": 9110,
      "말았다": 9111,
      "모호": 9112,
      "무대": 9113,
      "바가": 9114,
      "불가능": 9115,
      "뻔함": 9116,
      "살때": 9117,
      "삶은": 9118,
      "스틸": 9119,
      "시골": 9120,
      "시체": 9121,
      "시킬": 9122,
      "쓴다": 9123,
      "엉뚱": 9124,
      "영활": 9125,
      "왜이": 9126,
      "외면": 9127,
      "윌리엄": 9128,
      "이긴": 9129,
      "이순": 9130,
      "입니까": 9131,
      "장소": 9132,
      "짱구": 9133,
      "클로": 9134,
      "플린": 9135,
      "피곤": 9136,
      "보고도": 9137,
      "하지말": 9138,
      "처음본다": 9139,
      "처음이네": 9140,
      "아이와": 9141,
      "애니매이션": 9142,
      "였다면": 9143,
      "부분을": 9144,
      "만큼의": 9145,
      "시대적": 9146,
      "엔딩크레딧": 9147,
      "뻔한스토리": 9148,
      "답답해": 9149,
      "배경음악": 9150,
      "인물들의": 9151,
      "사회적": 9152,
      "찾아볼": 9153,
      "2편도": 9154,
      "여주인공의": 9155,
      "메세지를": 9156,
      "난해한": 9157,
      "가까이": 9158,
      "아기자기": 9159,
      "빨갱이": 9160,
      "아놀드": 9161,
      "점수준것들": 9162,
      "어쨌든": 9163,
      "트랜스포": 9164,
      "어차피": 9165,
      "!~": 9166,
      ".!": 9167,
      "1분": 9168,
      "28": 9169,
      "60년대": 9170,
      "av": 9171,
      "un": 9172,
      "강요": 9173,
      "괴담": 9174,
      "그를": 9175,
      "나갈": 9176,
      "날려": 9177,
      "농담": 9178,
      "대학생": 9179,
      "두사": 9180,
      "따듯": 9181,
      "러셀": 9182,
      "로보": 9183,
      "많음": 9184,
      "미리": 9185,
      "믿기지": 9186,
      "반지의": 9187,
      "보진": 9188,
      "본인": 9189,
      "상큼": 9190,
      "색채": 9191,
      "설경": 9192,
      "스레": 9193,
      "승우": 9194,
      "승헌": 9195,
      "안녕": 9196,
      "언론": 9197,
      "없으니": 9198,
      "여왕": 9199,
      "워드": 9200,
      "위안": 9201,
      "이중": 9202,
      "일부": 9203,
      "작이": 9204,
      "졌습니다": 9205,
      "조심": 9206,
      "짓게": 9207,
      "참여": 9208,
      "커피": 9209,
      "통해서": 9210,
      "파고": 9211,
      "팔아": 9212,
      "편하게": 9213,
      "포스": 9214,
      "하겠지만": 9215,
      "...(": 9216,
      "이런식으로": 9217,
      "감독에게": 9218,
      "사랑한다": 9219,
      "쓰레기쓰레기": 9220,
      "좋아하시는": 9221,
      "기대한": 9222,
      "아깝다는": 9223,
      "라는걸": 9224,
      "아닌것": 9225,
      "애니가": 9226,
      "ㅋㅋㅋㅋㅋㅋㅋㅋㅋㅋㅋㅋ": 9227,
      "대사는": 9228,
      "가족영화": 9229,
      "떨어져": 9230,
      "느껴질": 9231,
      "안되서": 9232,
      "긴장감은": 9233,
      "노래는": 9234,
      "슬프네요": 9235,
      "추억을": 9236,
      "주연의": 9237,
      "완벽하다": 9238,
      "완벽하게": 9239,
      "는거야": 9240,
      "빠져들게": 9241,
      "불쌍해": 9242,
      "상황에": 9243,
      "높은지": 9244,
      "킬링타임용으로도": 9245,
      "굿굿굿": 9246,
      "두고두고": 9247,
      "후반부로": 9248,
      "어설프게": 9249,
      "이루어": 9250,
      "정신병자": 9251,
      "타이틀": 9252,
      "학년때": 9253,
      "시끄러": 9254,
      "1개도": 9255,
      "no": 9256,
      "★☆": 9257,
      "ㄹㅇ": 9258,
      "ㅗㅗ": 9259,
      "갖게": 9260,
      "것보다": 9261,
      "관리": 9262,
      "관을": 9263,
      "구구": 9264,
      "글자": 9265,
      "나나": 9266,
      "나가고": 9267,
      "남이": 9268,
      "너희": 9269,
      "되냐": 9270,
      "드리고": 9271,
      "뚝뚝": 9272,
      "명성에": 9273,
      "못주": 9274,
      "못했던": 9275,
      "못하겠": 9276,
      "미달": 9277,
      "본건": 9278,
      "색깔": 9279,
      "수다": 9280,
      "수십": 9281,
      "심장이": 9282,
      "않네": 9283,
      "없구": 9284,
      "없을까": 9285,
      "여배우가": 9286,
      "완죤": 9287,
      "욕만": 9288,
      "잘하네요": 9289,
      "재방송": 9290,
      "전라도": 9291,
      "주먹": 9292,
      "증이": 9293,
      "지극히": 9294,
      "채워": 9295,
      "쿵푸": 9296,
      "하리": 9297,
      "한대": 9298,
      "한가지": 9299,
      "회상": 9300,
      "흉내내": 9301,
      "..!!": 9302,
      "아니네요": 9303,
      "사랑도": 9304,
      "쓰레기네": 9305,
      "1점준다": 9306,
      "이상함": 9307,
      "인생에서": 9308,
      "하기에는": 9309,
      "매력적": 9310,
      "나온다고": 9311,
      "표현할": 9312,
      "제대로된": 9313,
      "세상의": 9314,
      "캐스팅은": 9315,
      "에로영화": 9316,
      "더욱더": 9317,
      "평론가들": 9318,
      "이것보다": 9319,
      "괜찮았던": 9320,
      "오글거림": 9321,
      "설명이": 9322,
      "아련한": 9323,
      "세련된": 9324,
      "사투리": 9325,
      "김희선": 9326,
      "박찬욱": 9327,
      "1이": 9328,
      "간단": 9329,
      "강우": 9330,
      "고래": 9331,
      "고질": 9332,
      "공허": 9333,
      "구지": 9334,
      "군더더": 9335,
      "김명": 9336,
      "나아": 9337,
      "나열": 9338,
      "냉정": 9339,
      "넘치": 9340,
      "논리": 9341,
      "높네": 9342,
      "도에": 9343,
      "돈벌": 9344,
      "되도": 9345,
      "때리는": 9346,
      "말하려는": 9347,
      "멤버": 9348,
      "모른": 9349,
      "모방": 9350,
      "발랄": 9351,
      "배드": 9352,
      "번역": 9353,
      "빠짐": 9354,
      "사냥": 9355,
      "성적": 9356,
      "소나": 9357,
      "손꼽": 9358,
      "손예진": 9359,
      "송승헌": 9360,
      "쏘우": 9361,
      "안겨": 9362,
      "안봐": 9363,
      "안좋은": 9364,
      "앉아": 9365,
      "알지": 9366,
      "약하다": 9367,
      "었구나": 9368,
      "여유": 9369,
      "유혹": 9370,
      "저희": 9371,
      "적나라": 9372,
      "전지현": 9373,
      "좋겟": 9374,
      "지식": 9375,
      "짱이": 9376,
      "차태현": 9377,
      "찾을": 9378,
      "총을": 9379,
      "치기": 9380,
      "파리": 9381,
      "판에": 9382,
      "해줘서": 9383,
      "흥분": 9384,
      "영화계": 9385,
      "재밌었습니다": 9386,
      "평점도": 9387,
      "아니네": 9388,
      "지루했음": 9389,
      "1000": 9390,
      "보는줄": 9391,
      "좋아하지": 9392,
      "기대했던": 9393,
      "장면과": 9394,
      "이렇게까지": 9395,
      "이야기에": 9396,
      "재미없었음": 9397,
      "기억난다": 9398,
      "보기는": 9399,
      "공포도": 9400,
      "현실적으로": 9401,
      "남자를": 9402,
      "하기가": 9403,
      "억지스런": 9404,
      "소리를": 9405,
      "대사를": 9406,
      "가족과": 9407,
      "알바생": 9408,
      "친구들": 9409,
      "엔딩은": 9410,
      "당시엔": 9411,
      "장난치": 9412,
      "oooo": 9413,
      "잔인하고": 9414,
      "영상미와": 9415,
      "범죄자": 9416,
      "카메론": 9417,
      "메세지가": 9418,
      "감동적입니다": 9419,
      "베드신": 9420,
      "원주율": 9421,
      "가을": 9422,
      "감수": 9423,
      "거는": 9424,
      "거에요": 9425,
      "거같음": 9426,
      "고작": 9427,
      "극본": 9428,
      "나보다": 9429,
      "낚인": 9430,
      "남길": 9431,
      "내리": 9432,
      "눈치": 9433,
      "달고": 9434,
      "돈아깝다": 9435,
      "드려요": 9436,
      "또보고": 9437,
      "로마": 9438,
      "로멘": 9439,
      "마구": 9440,
      "멀리": 9441,
      "바랬": 9442,
      "박스": 9443,
      "박평": 9444,
      "상한": 9445,
      "속은": 9446,
      "스탈": 9447,
      "신세": 9448,
      "실사": 9449,
      "쓰렉": 9450,
      "엇어요": 9451,
      "에바": 9452,
      "열광": 9453,
      "영광": 9454,
      "예뻤": 9455,
      "우롱": 9456,
      "우왕": 9457,
      "웬만하면": 9458,
      "유승": 9459,
      "이태": 9460,
      "일러": 9461,
      "자격": 9462,
      "저나": 9463,
      "저의": 9464,
      "주신": 9465,
      "지독": 9466,
      "질문": 9467,
      "취급": 9468,
      "터짐": 9469,
      "피디": 9470,
      "힙합": 9471,
      "...-": 9472,
      "하고도": 9473,
      "배우와": 9474,
      "보는동안": 9475,
      "나오게": 9476,
      "이상도": 9477,
      "만든건지": 9478,
      "2013": 9479,
      "스타일이": 9480,
      "의미있는": 9481,
      "무섭지": 9482,
      "당시에는": 9483,
      "레이첼": 9484,
      "캐스팅도": 9485,
      "주제에": 9486,
      "버린다": 9487,
      "질질끌": 9488,
      "이것저것": 9489,
      "웃긴다": 9490,
      "크리스찬": 9491,
      "시원한": 9492,
      "않아도": 9493,
      "심각하게": 9494,
      "****": 9495,
      "아직까지도": 9496,
      "이정재": 9497,
      "very": 9498,
      "스페인": 9499,
      "영향을": 9500,
      "더라고요": 9501,
      "na": 9502,
      "so": 9503,
      "고소": 9504,
      "구혜": 9505,
      "귀찮": 9506,
      "기록": 9507,
      "김선": 9508,
      "깨끗": 9509,
      "꺼져": 9510,
      "낚여서": 9511,
      "날라": 9512,
      "눈요": 9513,
      "답다": 9514,
      "덜덜": 9515,
      "도중에": 9516,
      "르네": 9517,
      "마스터": 9518,
      "망가": 9519,
      "망상": 9520,
      "묘사가": 9521,
      "무려": 9522,
      "별반": 9523,
      "볼것": 9524,
      "비아": 9525,
      "사도": 9526,
      "생존": 9527,
      "승부": 9528,
      "연주": 9529,
      "오유": 9530,
      "오인": 9531,
      "욕심": 9532,
      "유익": 9533,
      "윤아": 9534,
      "으려": 9535,
      "음모": 9536,
      "이뻤": 9537,
      "이와": 9538,
      "장혁": 9539,
      "잼없음": 9540,
      "잼나요": 9541,
      "중엔": 9542,
      "즈가": 9543,
      "증명": 9544,
      "지하": 9545,
      "찬사를": 9546,
      "찾고": 9547,
      "첫사랑": 9548,
      "출현": 9549,
      "피가": 9550,
      "학살": 9551,
      "!!♥": 9552,
      "최고인듯": 9553,
      "이런것도": 9554,
      "사람마다": 9555,
      "재미있어서": 9556,
      "기대했": 9557,
      "지금보면": 9558,
      "아이고": 9559,
      "여자애": 9560,
      "때문이다": 9561,
      "현실감": 9562,
      "현실에": 9563,
      "볼만한데": 9564,
      "ㅋㅋㅋㅋㅋㅋㅋㅋㅋㅋㅋㅋㅋ": 9565,
      "인간적으로": 9566,
      "코미디영화": 9567,
      "만드는지": 9568,
      "나왔는데": 9569,
      "해야할": 9570,
      "긴장감과": 9571,
      "노래를": 9572,
      "지루함의": 9573,
      "불쌍해서": 9574,
      "머리에": 9575,
      "영상미도": 9576,
      "성우가": 9577,
      "의도를": 9578,
      "이기적인": 9579,
      "동화같은": 9580,
      "그럴싸": 9581,
      "흥미롭게": 9582,
      "겨울왕국": 9583,
      "오랫동안": 9584,
      "남기는데": 9585,
      "밋밋한": 9586,
      "한숨만": 9587,
      "언젠가": 9588,
      "시간때우기": 9589,
      "엑스맨": 9590,
      "스필버그": 9591,
      "호불호가": 9592,
      "1은": 9593,
      "24": 9594,
      "가네요": 9595,
      "갔다가": 9596,
      "강지": 9597,
      "개의": 9598,
      "거에": 9599,
      "납치": 9600,
      "너의": 9601,
      "돈과": 9602,
      "등이": 9603,
      "디젤": 9604,
      "러스": 9605,
      "마인": 9606,
      "마케": 9607,
      "막상": 9608,
      "멀쩡": 9609,
      "미도": 9610,
      "믿지": 9611,
      "밀라": 9612,
      "방황": 9613,
      "본듯한": 9614,
      "부른": 9615,
      "비참": 9616,
      "사나": 9617,
      "셨으면": 9618,
      "시장": 9619,
      "였지": 9620,
      "영은": 9621,
      "오페": 9622,
      "올린": 9623,
      "우마": 9624,
      "일찍": 9625,
      "입은": 9626,
      "재치": 9627,
      "져야": 9628,
      "주관": 9629,
      "중에서도": 9630,
      "진희": 9631,
      "집단": 9632,
      "쪽팔": 9633,
      "찍을": 9634,
      "치다": 9635,
      "표정이": 9636,
      "하죠": 9637,
      "학창": 9638,
      "해외": 9639,
      "해가는": 9640,
      "재미나게": 9641,
      "생각에": 9642,
      "사람으로": 9643,
      "장면에": 9644,
      "지금이나": 9645,
      "명작임": 9646,
      "우리에게": 9647,
      "공포영화는": 9648,
      "몰입하게": 9649,
      "............": 9650,
      "코미디는": 9651,
      "뭔가요": 9652,
      "안되게": 9653,
      "무서울": 9654,
      "허접하고": 9655,
      "개인적으로는": 9656,
      "이어지는": 9657,
      "보고싶어": 9658,
      "조차도": 9659,
      "오글거리고": 9660,
      "관심을": 9661,
      "나머진": 9662,
      "30대": 9663,
      "이따위로": 9664,
      "비행기": 9665,
      "심오한": 9666,
      "000원": 9667,
      "고맙습니다": 9668,
      "수면제": 9669,
      "총체적": 9670,
      "라에몽": 9671,
      "설경구": 9672,
      "!?": 9673,
      "vs": 9674,
      "가난": 9675,
      "것들을": 9676,
      "구석": 9677,
      "금지": 9678,
      "끝난다": 9679,
      "난국": 9680,
      "너는": 9681,
      "댄스": 9682,
      "더럽고": 9683,
      "도라에몽": 9684,
      "드물": 9685,
      "땜시": 9686,
      "만나는": 9687,
      "머지": 9688,
      "모순": 9689,
      "문학": 9690,
      "방에서": 9691,
      "배워": 9692,
      "번에": 9693,
      "변신": 9694,
      "본색": 9695,
      "본적": 9696,
      "부는": 9697,
      "빨고": 9698,
      "수사": 9699,
      "스코": 9700,
      "아르": 9701,
      "안함": 9702,
      "얘기가": 9703,
      "없군": 9704,
      "없구나": 9705,
      "에다가": 9706,
      "왕가위": 9707,
      "우승": 9708,
      "울었습니다": 9709,
      "위트": 9710,
      "으으": 9711,
      "을것": 9712,
      "의지": 9713,
      "인걸": 9714,
      "인지는": 9715,
      "일도": 9716,
      "저주": 9717,
      "저지": 9718,
      "적극": 9719,
      "정주행": 9720,
      "졸려": 9721,
      "줘요": 9722,
      "지배": 9723,
      "지워": 9724,
      "지효": 9725,
      "처절": 9726,
      "출신": 9727,
      "카타": 9728,
      "크가": 9729,
      "파이팅": 9730,
      "팝콘": 9731,
      "학원": 9732,
      "한예": 9733,
      "한정": 9734,
      "할정도로": 9735,
      "흘렀": 9736,
      "그냥저냥": 9737,
      "시간아까워": 9738,
      "쓰레기가": 9739,
      "좋아하고": 9740,
      "좋아지는": 9741,
      "10점짜리": 9742,
      "공포영화가": 9743,
      "지도않고": 9744,
      "일본이": 9745,
      "한번씩": 9746,
      "가슴아픈": 9747,
      "많은것을": 9748,
      "연기력과": 9749,
      "보니깐": 9750,
      "의미없는": 9751,
      "1편을": 9752,
      "어설퍼": 9753,
      "감동적이었다": 9754,
      "배경도": 9755,
      "결국엔": 9756,
      "평가를": 9757,
      "진부하다": 9758,
      "이후에": 9759,
      "198": 9760,
      "가치를": 9761,
      ",,,,,,,,": 9762,
      "존경합니다": 9763,
      "예뻐서": 9764,
      "남긴다": 9765,
      "아이언맨": 9766,
      "7광구": 9767,
      "이탈리아": 9768,
      "1도": 9769,
      "60": 9770,
      "id": 9771,
      "감옥": 9772,
      "감한": 9773,
      "고만": 9774,
      "고향": 9775,
      "과정을": 9776,
      "괴롭": 9777,
      "구하는": 9778,
      "귀가": 9779,
      "기적": 9780,
      "남기고": 9781,
      "도움이": 9782,
      "돈은": 9783,
      "동의": 9784,
      "되다니": 9785,
      "됬는데": 9786,
      "드만": 9787,
      "란히": 9788,
      "마주": 9789,
      "마틴": 9790,
      "말만": 9791,
      "멋있": 9792,
      "못생": 9793,
      "민아": 9794,
      "밖엔": 9795,
      "반갑": 9796,
      "배려": 9797,
      "범인이": 9798,
      "별이": 9799,
      "빨간": 9800,
      "성찰": 9801,
      "속지": 9802,
      "시를": 9803,
      "시의": 9804,
      "심리를": 9805,
      "않으면": 9806,
      "앤딩": 9807,
      "야하지도": 9808,
      "얻어": 9809,
      "여튼": 9810,
      "예쁨": 9811,
      "울었던": 9812,
      "위가": 9813,
      "유령": 9814,
      "의견": 9815,
      "이겨": 9816,
      "이경": 9817,
      "이혼": 9818,
      "절반": 9819,
      "증말": 9820,
      "지저": 9821,
      "채플린": 9822,
      "첫번째": 9823,
      "최대": 9824,
      "출발": 9825,
      "태권": 9826,
      "편을": 9827,
      "허구": 9828,
      "현준": 9829,
      "흐지": 9830,
      "영화자체는": 9831,
      "생각나게": 9832,
      "시간과": 9833,
      "액션물": 9834,
      "기대된다": 9835,
      "10점만점에": 9836,
      "아이들은": 9837,
      "연출을": 9838,
      "!!!!!!!": 9839,
      "명작이라고": 9840,
      "보기도": 9841,
      "일본인": 9842,
      "여운도": 9843,
      "느껴지": 9844,
      "할수없는": 9845,
      "무서워서": 9846,
      "답답해서": 9847,
      "역사적": 9848,
      "설정과": 9849,
      "이딴거": 9850,
      "사회에": 9851,
      "오글거리": 9852,
      "미친듯이": 9853,
      "장르의": 9854,
      "충분하다": 9855,
      "다음으로": 9856,
      "걸작이다": 9857,
      "비교하면": 9858,
      "사이에서": 9859,
      "발연기에": 9860,
      "10년전": 9861,
      "이번에": 9862,
      "123": 9863,
      "식상하다": 9864,
      "훈훈하고": 9865,
      "분명히": 9866,
      "즐겁고": 9867,
      "하려면": 9868,
      "채널돌": 9869,
      "하셨습니다": 9870,
      "페이스": 9871,
      "편견을": 9872,
      "슬펐다": 9873,
      "전율이": 9874,
      "새록새록": 9875,
      "힘내세요": 9876,
      "드래곤볼": 9877,
      "데뷔작": 9878,
      "소지섭": 9879,
      "가도": 9880,
      "개같은": 9881,
      "경우": 9882,
      "괴수": 9883,
      "기승전": 9884,
      "까요": 9885,
      "끝판": 9886,
      "노튼": 9887,
      "대역": 9888,
      "데드": 9889,
      "드릴": 9890,
      "또는": 9891,
      "람보": 9892,
      "리쉬": 9893,
      "면도": 9894,
      "몸을": 9895,
      "바래": 9896,
      "변호": 9897,
      "볼걸": 9898,
      "볼일": 9899,
      "부여": 9900,
      "빈약한": 9901,
      "상당한": 9902,
      "싶네": 9903,
      "씨발": 9904,
      "안가고": 9905,
      "애로": 9906,
      "어딜": 9907,
      "왔던": 9908,
      "장근": 9909,
      "장미": 9910,
      "재발견": 9911,
      "직장": 9912,
      "징징": 9913,
      "치만": 9914,
      "콘서": 9915,
      "튀어": 9916,
      "플레이": 9917,
      "피는": 9918,
      "하의": 9919,
      "할려고": 9920,
      "할말을": 9921,
      "혜교": 9922,
      "효진": 9923,
      "흐르": 9924,
      "히로": 9925,
      "..;": 9926,
      "재미만": 9927,
      "생각했던": 9928,
      "내용으로": 9929,
      "처음이": 9930,
      "여자친구": 9931,
      "아닌거": 9932,
      "현실적이고": 9933,
      "영화다운": 9934,
      "일본에서": 9935,
      "볼만해요": 9936,
      "스러울": 9937,
      "캐릭터의": 9938,
      "웃기네": 9939,
      "스릴러물": 9940,
      "부족하고": 9941,
      "던데요": 9942,
      "초반부터": 9943,
      "초반에는": 9944,
      "않았나": 9945,
      "힘들게": 9946,
      "이쁘게": 9947,
      "자연스러운": 9948,
      "어쩌다": 9949,
      "관람객": 9950,
      "슬픈영화": 9951,
      "아름다웠다": 9952,
      "하던지": 9953,
      "몰랐는데": 9954,
      "바라보는": 9955,
      "지않아": 9956,
      "말아라": 9957,
      "리의리의": 9958,
      "여배우의": 9959,
      "전편보다": 9960,
      "그럼에도": 9961,
      "감동적임": 9962,
      "통쾌한": 9963,
      "로버츠": 9964,
      "죽기전에": 9965,
      "장동건": 9966,
      "다세포소녀": 9967,
      "트랜스포머": 9968,
      "★☆★☆": 9969,
      "A급": 9970,
      "cn": 9971,
      "가기": 9972,
      "가깝": 9973,
      "강하게": 9974,
      "것들은": 9975,
      "경제": 9976,
      "군인": 9977,
      "그에": 9978,
      "그와": 9979,
      "깁니다": 9980,
      "께서": 9981,
      "능력이": 9982,
      "단역": 9983,
      "따스": 9984,
      "렸음": 9985,
      "리브": 9986,
      "리즘": 9987,
      "만나고": 9988,
      "말하면": 9989,
      "먹어": 9990,
      "멋대로": 9991,
      "명확": 9992,
      "못생겼": 9993,
      "무기": 9994,
      "밀어": 9995,
      "박해": 9996,
      "백인": 9997,
      "베트": 9998,
      "본영화중": 9999,
      "볼땐": 10000,
      "빠지고": 10001,
      "샤론": 10002,
      "성숙": 10003,
      "세트": 10004,
      "속도": 10005,
      "솔까": 10006,
      "아웃": 10007,
      "없애": 10008,
      "없었으면": 10009,
      "웃으며": 10010,
      "을지": 10011,
      "임청": 10012,
      "정준": 10013,
      "존잼": 10014,
      "종합": 10015,
      "주원": 10016,
      "진호": 10017,
      "짐캐리": 10018,
      "찍지": 10019,
      "찡한": 10020,
      "참을": 10021,
      "최대의": 10022,
      "큐브": 10023,
      "토끼": 10024,
      "팬인데": 10025,
      "평은": 10026,
      "피를": 10027,
      "하였다": 10028,
      "하구나": 10029,
      "향한": 10030,
      "허탈": 10031,
      "혀서": 10032,
      "환타": 10033,
      "흑역사": 10034,
      "영화계의": 10035,
      "...;;": 10036,
      "하고싶다": 10037,
      "연기한": 10038,
      "~~!": 10039,
      "보는중": 10040,
      "좋아했던": 10041,
      "좋아해요": 10042,
      "액션에": 10043,
      "1점주는": 10044,
      "겠다고": 10045,
      "기억을": 10046,
      "보여줌": 10047,
      "인생영화": 10048,
      "수준이다": 10049,
      "추천한다": 10050,
      "남는건": 10051,
      "나와라": 10052,
      "어디까지": 10053,
      "만들었네": 10054,
      "우리나라의": 10055,
      "분위기를": 10056,
      "귀여워서": 10057,
      "킬링타임용도": 10058,
      "전부다": 10059,
      "누구도": 10060,
      "영웅본색": 10061,
      "일어날": 10062,
      "우울한": 10063,
      "9999": 10064,
      "정우성": 10065,
      "슬퍼요": 10066,
      "끝날때까지": 10067,
      "떠오르는": 10068,
      "러닝타임이": 10069,
      "말았어야": 10070,
      "여태까지": 10071,
      "이따구": 10072,
      "이따구로": 10073,
      "화끈한": 10074,
      "클래식": 10075,
      "키드먼": 10076,
      "무간도": 10077,
      "아마추어": 10078,
      "아카데미": 10079,
      "차승원": 10080,
      "다이하드": 10081,
      "신데렐": 10082,
      "런닝맨": 10083,
      "흐지부지": 10084,
      "3d": 10085,
      "ff": 10086,
      "se": 10087,
      "갔으면": 10088,
      "것같은데": 10089,
      "경악": 10090,
      "구분": 10091,
      "끝은": 10092,
      "났던": 10093,
      "대서": 10094,
      "대전": 10095,
      "더럽": 10096,
      "도안": 10097,
      "돈만": 10098,
      "되니": 10099,
      "디아": 10100,
      "똑똑": 10101,
      "러티브": 10102,
      "맘이": 10103,
      "모야": 10104,
      "몸이": 10105,
      "미이라": 10106,
      "박정": 10107,
      "반감": 10108,
      "부인": 10109,
      "산다": 10110,
      "서스": 10111,
      "실히": 10112,
      "써요": 10113,
      "악의": 10114,
      "애절": 10115,
      "야마": 10116,
      "양반": 10117,
      "엉엉": 10118,
      "여배우들": 10119,
      "역의": 10120,
      "욕나온다": 10121,
      "있겠지": 10122,
      "죽는다": 10123,
      "줘라": 10124,
      "지존": 10125,
      "지않고": 10126,
      "차기": 10127,
      "처리": 10128,
      "청년": 10129,
      "춤추": 10130,
      "침묵": 10131,
      "투표": 10132,
      "파악": 10133,
      "한글": 10134,
      "한장면": 10135,
      "할배": 10136,
      "했어도": 10137,
      "흠잡을": 10138,
      "보고있는": 10139,
      "^^;": 10140,
      "장면들": 10141,
      "되는게": 10142,
      "이상을": 10143,
      "반전의": 10144,
      "제목과": 10145,
      "영화로서": 10146,
      "어이없고": 10147,
      "알았더니": 10148,
      "관객에게": 10149,
      "시나리오도": 10150,
      "하시네요": 10151,
      "지루함이": 10152,
      "인상깊게": 10153,
      "않았을까": 10154,
      "졸작이다": 10155,
      "엄마랑": 10156,
      "그나저나": 10157,
      "보시는": 10158,
      "머리를": 10159,
      "CG는": 10160,
      "관계를": 10161,
      "게임을": 10162,
      "영환줄": 10163,
      "예고편만": 10164,
      "3편은": 10165,
      "미래를": 10166,
      "메시지를": 10167,
      "한계를": 10168,
      "흐름이": 10169,
      "영화라는게": 10170,
      "장애인": 10171,
      "아픔을": 10172,
      "과장된": 10173,
      "사무라이": 10174,
      "아쉬웠지만": 10175,
      "클라라": 10176,
      "오우삼": 10177,
      "마케팅": 10178,
      "300": 10179,
      "XX": 10180,
      "li": 10181,
      "sh": 10182,
      "같기도": 10183,
      "걸어": 10184,
      "과잉": 10185,
      "그들을": 10186,
      "길고": 10187,
      "김윤": 10188,
      "나참": 10189,
      "노골": 10190,
      "놀랬": 10191,
      "높이": 10192,
      "들린": 10193,
      "똑같": 10194,
      "말이다": 10195,
      "망설": 10196,
      "모델": 10197,
      "모성애": 10198,
      "몰락": 10199,
      "못따라": 10200,
      "물은": 10201,
      "배울": 10202,
      "보낸다": 10203,
      "복수를": 10204,
      "분들도": 10205,
      "스킵": 10206,
      "시민": 10207,
      "신세계": 10208,
      "십니다": 10209,
      "어중간": 10210,
      "없었고": 10211,
      "위를": 10212,
      "유부": 10213,
      "이스트": 10214,
      "인영화": 10215,
      "일드": 10216,
      "잃어버린": 10217,
      "자도": 10218,
      "자면": 10219,
      "잠들": 10220,
      "저거": 10221,
      "저게": 10222,
      "전성기": 10223,
      "제한": 10224,
      "주로": 10225,
      "죽을때": 10226,
      "쥐어": 10227,
      "지에": 10228,
      "짜여진": 10229,
      "차가": 10230,
      "태양": 10231,
      "터져": 10232,
      "파라노": 10233,
      "팬이라면": 10234,
      "하잖아": 10235,
      "한쿡": 10236,
      "할뻔": 10237,
      "해본": 10238,
      "호화": 10239,
      "너무재밌어요": 10240,
      "재밌당": 10241,
      "하는듯": 10242,
      "배우분들": 10243,
      "10개": 10244,
      "1010": 10245,
      "보는듯": 10246,
      "재미있다고": 10247,
      "장면의": 10248,
      "최악이": 10249,
      "소재만": 10250,
      "필요없음": 10251,
      "눈물흘": 10252,
      "매력적이다": 10253,
      "원작은": 10254,
      "개봉을": 10255,
      "영화로는": 10256,
      "이유로": 10257,
      "만화는": 10258,
      "따뜻해": 10259,
      "0점을": 10260,
      "다큐를": 10261,
      "멋진영화": 10262,
      "설정에": 10263,
      "지나친": 10264,
      "상상력이": 10265,
      "요소를": 10266,
      "중반부": 10267,
      "안타까움": 10268,
      "소녀의": 10269,
      "알려준": 10270,
      "보자고": 10271,
      "외국인": 10272,
      "드림웍": 10273,
      "니콜라스": 10274,
      "조용히": 10275,
      "특이한": 10276,
      "지겨워": 10277,
      "유지태": 10278,
      "부끄러운": 10279,
      "com": 10280,
      "전도연": 10281,
      "클리셰": 10282,
      "엑소시": 10283,
      "마누라": 10284,
      "MBC": 10285,
      "구혜선": 10286,
      "학창시절": 10287,
      ".(": 10288,
      ".?": 10289,
      "1탄": 10290,
      "2차": 10291,
      "><": 10292,
      "ㅂㅅ": 10293,
      "개잼": 10294,
      "결합": 10295,
      "고도": 10296,
      "관대": 10297,
      "괴로": 10298,
      "구먼": 10299,
      "그들은": 10300,
      "글구": 10301,
      "김정": 10302,
      "네가": 10303,
      "놓는": 10304,
      "닮은": 10305,
      "덴젤": 10306,
      "돈낭비": 10307,
      "됬다": 10308,
      "랐다": 10309,
      "말해서": 10310,
      "매니": 10311,
      "목을": 10312,
      "무색": 10313,
      "미장": 10314,
      "밀리": 10315,
      "샌들러": 10316,
      "서서": 10317,
      "씩이나": 10318,
      "아끼": 10319,
      "았네": 10320,
      "애정": 10321,
      "어를": 10322,
      "엠마": 10323,
      "엽문": 10324,
      "워커": 10325,
      "원표": 10326,
      "이웃": 10327,
      "이전": 10328,
      "일일": 10329,
      "자라": 10330,
      "자매": 10331,
      "자키": 10332,
      "전국": 10333,
      "정리": 10334,
      "조명": 10335,
      "줄알았는데": 10336,
      "지리": 10337,
      "지나서": 10338,
      "쫄깃": 10339,
      "체험": 10340,
      "총격": 10341,
      "치도": 10342,
      "친일": 10343,
      "판으로": 10344,
      "펙트": 10345,
      "한텐": 10346,
      "했어야": 10347,
      "영화처럼": 10348,
      "스토리지만": 10349,
      "드라마네요": 10350,
      "배우로": 10351,
      "만들다": 10352,
      "나오기": 10353,
      "작품도": 10354,
      "작품의": 10355,
      "작품이라": 10356,
      "아이의": 10357,
      "괜찮아": 10358,
      "다른건": 10359,
      "20년이": 10360,
      "인간들이": 10361,
      "재밋어": 10362,
      "원작과": 10363,
      "솔직한": 10364,
      "코미디가": 10365,
      "가족애": 10366,
      "스트라": 10367,
      "막장이": 10368,
      "아니라서": 10369,
      "해도해도": 10370,
      "잔잔하면서도": 10371,
      "안되나": 10372,
      "거리가": 10373,
      "관객들": 10374,
      "인물이": 10375,
      "여기저기": 10376,
      "B급영화": 10377,
      "스타일의": 10378,
      "줄거리가": 10379,
      "안타깝네요": 10380,
      "미치도록": 10381,
      "결과는": 10382,
      "나은듯": 10383,
      "봤을땐": 10384,
      "김민종": 10385,
      "낚였네": 10386,
      "탁월한": 10387,
      "조기종영": 10388,
      "The": 10389,
      "가의": 10390,
      "거니": 10391,
      "거울": 10392,
      "거워": 10393,
      "거죠": 10394,
      "걸고": 10395,
      "고인의": 10396,
      "그레이": 10397,
      "기나": 10398,
      "기념": 10399,
      "김소": 10400,
      "꼬맹": 10401,
      "꿈과": 10402,
      "내일": 10403,
      "니버스": 10404,
      "돋보인다": 10405,
      "등을": 10406,
      "리면서": 10407,
      "맛을": 10408,
      "물건": 10409,
      "믿음": 10410,
      "바르": 10411,
      "법정": 10412,
      "보냐": 10413,
      "볼꺼": 10414,
      "봤는": 10415,
      "부가": 10416,
      "부럽다": 10417,
      "뽕짝": 10418,
      "사나이": 10419,
      "상에": 10420,
      "섭외": 10421,
      "손색이": 10422,
      "숨어": 10423,
      "시티": 10424,
      "시네요": 10425,
      "쌩뚱": 10426,
      "써도": 10427,
      "안고": 10428,
      "어떡": 10429,
      "여도": 10430,
      "웹툰": 10431,
      "이형": 10432,
      "조로": 10433,
      "조직": 10434,
      "주었다": 10435,
      "줄리아": 10436,
      "중심": 10437,
      "지르고": 10438,
      "진국": 10439,
      "테니": 10440,
      "할게": 10441,
      "함부로": 10442,
      "환장": 10443,
      "영화들은": 10444,
      "영화내내": 10445,
      "없다는게": 10446,
      "하나만": 10447,
      "다는건": 10448,
      "기대에": 10449,
      "주인공을": 10450,
      "재밌게본": 10451,
      "재밌게봤다": 10452,
      "수준은": 10453,
      "다운로드": 10454,
      "나라를": 10455,
      "나라의": 10456,
      "오늘도": 10457,
      "인물들": 10458,
      "분위기도": 10459,
      "후회함": 10460,
      "혼자서": 10461,
      "허무하게": 10462,
      "어쩌라고": 10463,
      "있다는게": 10464,
      "아프리카": 10465,
      "영화인거": 10466,
      "웃겨요": 10467,
      "불륜을": 10468,
      "흥미진진한": 10469,
      "복수극": 10470,
      "잘생긴": 10471,
      "메시지가": 10472,
      "모자라": 10473,
      "싸이코패스": 10474,
      "그지같은": 10475,
      "웃겼음": 10476,
      "믿을게": 10477,
      "고마운": 10478,
      "응원합니다": 10479,
      "1점준것": 10480,
      "크리스토": 10481,
      "위원회": 10482,
      "소피마르": 10483,
      "미야자키": 10484,
      "권상우": 10485,
      "어떠한": 10486,
      "한효주": 10487,
      "군더더기": 10488,
      "미장센": 10489,
      ",..": 10490,
      "ㄴㄴ": 10491,
      "간첩": 10492,
      "감에": 10493,
      "겠는데": 10494,
      "경계": 10495,
      "공원": 10496,
      "김구라": 10497,
      "내기": 10498,
      "님을": 10499,
      "데요": 10500,
      "두명": 10501,
      "드네": 10502,
      "똑바로": 10503,
      "뛰쳐": 10504,
      "랑은": 10505,
      "록키": 10506,
      "말지": 10507,
      "메가": 10508,
      "모가": 10509,
      "목사": 10510,
      "바꾼": 10511,
      "배틀": 10512,
      "백배": 10513,
      "사망": 10514,
      "산드라": 10515,
      "생략": 10516,
      "서방": 10517,
      "스콧": 10518,
      "시사": 10519,
      "신념": 10520,
      "씨를": 10521,
      "않는데": 10522,
      "엉터리": 10523,
      "에일": 10524,
      "여정": 10525,
      "역쉬": 10526,
      "역활": 10527,
      "오르": 10528,
      "우아": 10529,
      "위에서": 10530,
      "의학": 10531,
      "이랬": 10532,
      "이어서": 10533,
      "일이다": 10534,
      "잘해서": 10535,
      "저절로": 10536,
      "정통": 10537,
      "주옥": 10538,
      "증거": 10539,
      "질러": 10540,
      "찜찜": 10541,
      "클럽": 10542,
      "트리": 10543,
      "파트": 10544,
      "풍부": 10545,
      "피의": 10546,
      "했었다": 10547,
      "행크": 10548,
      "홍금": 10549,
      "흐흐": 10550,
      "재밌지": 10551,
      "진짜진짜": 10552,
      "최고였습니다": 10553,
      "생각해도": 10554,
      "배우만": 10555,
      "내용전개": 10556,
      "만들려고": 10557,
      "재미있었고": 10558,
      "사랑으로": 10559,
      "쓰레기임": 10560,
      "나오다니": 10561,
      "하지않고": 10562,
      "작품중": 10563,
      "기대됩니다": 10564,
      "아까웠던": 10565,
      "재미없습니다": 10566,
      "가는게": 10567,
      "필요하다": 10568,
      "20년전": 10569,
      "매력은": 10570,
      "스럽네요": 10571,
      "자체를": 10572,
      "보이네요": 10573,
      "어이없어서": 10574,
      "스릴러를": 10575,
      "정신을": 10576,
      "이영화보고": 10577,
      "세상은": 10578,
      "웃음과": 10579,
      "이란게": 10580,
      "모르겠는데": 10581,
      "영화라기": 10582,
      "전쟁을": 10583,
      "행복을": 10584,
      "시나리오를": 10585,
      "인물의": 10586,
      "재밌는영화": 10587,
      "더빙은": 10588,
      "상상을": 10589,
      "아까워요": 10590,
      "알게된": 10591,
      "에로물": 10592,
      "영화에서는": 10593,
      "놀라울": 10594,
      "선생님이": 10595,
      "역할을": 10596,
      "and": 10597,
      "복잡한": 10598,
      "움직이는": 10599,
      "냄새가": 10600,
      "최초의": 10601,
      "스텝업": 10602,
      "어우러진": 10603,
      "드니로": 10604,
      "에드워드": 10605,
      "고스란히": 10606,
      "오인혜": 10607,
      "5점대": 10608,
      "7점이": 10609,
      "ㅅㅅ": 10610,
      "가식": 10611,
      "가해": 10612,
      "계획": 10613,
      "길다": 10614,
      "끊임": 10615,
      "날의": 10616,
      "남았다": 10617,
      "내세": 10618,
      "노예": 10619,
      "대실망": 10620,
      "동호": 10621,
      "둘의": 10622,
      "들리": 10623,
      "래셔": 10624,
      "말해": 10625,
      "맹랑": 10626,
      "몇개": 10627,
      "모여": 10628,
      "바른": 10629,
      "바리": 10630,
      "벗고": 10631,
      "별한개도": 10632,
      "봣던": 10633,
      "봤었다": 10634,
      "부각": 10635,
      "불행": 10636,
      "브레이": 10637,
      "비현실적인": 10638,
      "상도": 10639,
      "상은": 10640,
      "세대": 10641,
      "손색": 10642,
      "송혜교": 10643,
      "싸울": 10644,
      "써서": 10645,
      "안경": 10646,
      "앵글": 10647,
      "야만": 10648,
      "양조": 10649,
      "어벤": 10650,
      "어케": 10651,
      "에러": 10652,
      "에대해": 10653,
      "연장": 10654,
      "영애": 10655,
      "요한": 10656,
      "울었네요": 10657,
      "은혜": 10658,
      "이선": 10659,
      "이트": 10660,
      "재료": 10661,
      "전락": 10662,
      "전환": 10663,
      "정재": 10664,
      "짜고": 10665,
      "차마": 10666,
      "천사": 10667,
      "초중반": 10668,
      "카피": 10669,
      "클라이": 10670,
      "타령": 10671,
      "특징": 10672,
      "팀버튼": 10673,
      "함으로": 10674,
      "활동": 10675,
      "너무좋아요": 10676,
      "연기까지": 10677,
      "생각해서": 10678,
      "드라마에서": 10679,
      "시간의": 10680,
      "재미있었던": 10681,
      "다시봤는데": 10682,
      "기대는": 10683,
      "기대도": 10684,
      "기대되는": 10685,
      "되는지": 10686,
      "주인공도": 10687,
      "별로였음": 10688,
      "아이들도": 10689,
      "말이필요없는": 10690,
      "!!!!!!!!!": 10691,
      "아닌지": 10692,
      "현실성이": 10693,
      "일본영화는": 10694,
      "실망스럽다": 10695,
      "결말까지": 10696,
      "공감가는": 10697,
      "남는영화": 10698,
      "막장으로": 10699,
      "안되네요": 10700,
      "만화영화": 10701,
      "시절이": 10702,
      "분위기에": 10703,
      "않았고": 10704,
      "엄마의": 10705,
      "주제는": 10706,
      "집중도": 10707,
      "영상미는": 10708,
      "케이트": 10709,
      "극장판은": 10710,
      "사건을": 10711,
      "오글거려서": 10712,
      "메세지도": 10713,
      "사기꾼": 10714,
      "퀄리티가": 10715,
      "검색해": 10716,
      "가져다": 10717,
      "21세기": 10718,
      "한번쯤은": 10719,
      "ove": 10720,
      "00000000": 10721,
      "미스터리": 10722,
      "인종차별": 10723,
      "과대평가": 10724,
      "흡입력": 10725,
      "뮤직비디오": 10726,
      "공중파": 10727,
      "국어책": 10728,
      "1화": 10729,
      "2개": 10730,
      "KBS": 10731,
      "PD": 10732,
      "im": 10733,
      "ne": 10734,
      "그땐": 10735,
      "극찬": 10736,
      "난감": 10737,
      "남매": 10738,
      "내겐": 10739,
      "내놔": 10740,
      "대여": 10741,
      "될것": 10742,
      "등급": 10743,
      "뜨거운": 10744,
      "마크": 10745,
      "명성을": 10746,
      "모냐": 10747,
      "못미": 10748,
      "미흡": 10749,
      "방식이": 10750,
      "백만": 10751,
      "별하나": 10752,
      "병원": 10753,
      "부대": 10754,
      "불면": 10755,
      "비는": 10756,
      "비싼": 10757,
      "뻔하지만": 10758,
      "상욱": 10759,
      "스파": 10760,
      "습니당": 10761,
      "식스": 10762,
      "싫음": 10763,
      "써라": 10764,
      "아키": 10765,
      "없구만": 10766,
      "에반": 10767,
      "여주는": 10768,
      "역에": 10769,
      "였을": 10770,
      "운이": 10771,
      "울어": 10772,
      "웃길": 10773,
      "의외의": 10774,
      "이정도로": 10775,
      "인격": 10776,
      "읽은": 10777,
      "있죠": 10778,
      "잘하": 10779,
      "잘하네": 10780,
      "장의": 10781,
      "장에서": 10782,
      "조정": 10783,
      "존내": 10784,
      "주니": 10785,
      "줬으면": 10786,
      "쥬라기": 10787,
      "징그러": 10788,
      "차분": 10789,
      "초능력": 10790,
      "헌터": 10791,
      "회를": 10792,
      "후한": 10793,
      "흐뭇": 10794,
      "..??": 10795,
      "영화좀": 10796,
      "너무한다": 10797,
      "최고인": 10798,
      "스토리전개": 10799,
      "아니라는": 10800,
      "시간아까움": 10801,
      "나오면서": 10802,
      "기대할": 10803,
      "명작이네요": 10804,
      "남자와": 10805,
      "볼만하네요": 10806,
      "눈물도": 10807,
      "인간적인": 10808,
      "캐릭터와": 10809,
      "모습과": 10810,
      "모습도": 10811,
      "표현해": 10812,
      "들어가는": 10813,
      "어이없네": 10814,
      "부족함": 10815,
      "개인의": 10816,
      "무서웠다": 10817,
      "훌륭하고": 10818,
      "전쟁이": 10819,
      "배경과": 10820,
      "하시면": 10821,
      "장르는": 10822,
      "2점준다": 10823,
      "구성과": 10824,
      "등장하는": 10825,
      "상영관이": 10826,
      "즐거움": 10827,
      "말아먹은": 10828,
      "미안하지만": 10829,
      "남아있는": 10830,
      "남주가": 10831,
      "자유를": 10832,
      "인터뷰": 10833,
      "안보신": 10834,
      "아동용": 10835,
      "강력추천": 10836,
      "경의를": 10837,
      "어둡고": 10838,
      "일주일": 10839,
      "끝판왕": 10840,
      ".^": 10841,
      ".\"\"\"\"": 10842,
      "23": 10843,
      "3개": 10844,
      "op": 10845,
      "가물": 10846,
      "가상": 10847,
      "같지도": 10848,
      "게하는": 10849,
      "계기가": 10850,
      "곱씹": 10851,
      "군이": 10852,
      "권택": 10853,
      "기와": 10854,
      "꼬라": 10855,
      "꾸역": 10856,
      "남발": 10857,
      "남음": 10858,
      "내리는": 10859,
      "느리고": 10860,
      "니의": 10861,
      "더럽다": 10862,
      "도입": 10863,
      "동이": 10864,
      "된거": 10865,
      "똥을": 10866,
      "렸습니다": 10867,
      "로렌": 10868,
      "마초": 10869,
      "많지만": 10870,
      "멘붕": 10871,
      "목이": 10872,
      "목적": 10873,
      "못본": 10874,
      "뭔데": 10875,
      "뭡니까": 10876,
      "믿기": 10877,
      "발레": 10878,
      "별반개도": 10879,
      "보호": 10880,
      "봤다고": 10881,
      "부디": 10882,
      "비스": 10883,
      "뻔해서": 10884,
      "뿐인": 10885,
      "사서": 10886,
      "선율": 10887,
      "성한": 10888,
      "송지효": 10889,
      "슈렉": 10890,
      "스나": 10891,
      "식은": 10892,
      "실종": 10893,
      "약을": 10894,
      "양동근": 10895,
      "없었지만": 10896,
      "연령": 10897,
      "오르는": 10898,
      "외에": 10899,
      "요미": 10900,
      "우월": 10901,
      "으세요": 10902,
      "이길": 10903,
      "있을때": 10904,
      "장에": 10905,
      "제를": 10906,
      "제미": 10907,
      "집안": 10908,
      "짱나": 10909,
      "찍었": 10910,
      "창의": 10911,
      "첨이네": 10912,
      "총알": 10913,
      "친절": 10914,
      "파일": 10915,
      "펭귄": 10916,
      "합니까": 10917,
      "헤헤": 10918,
      "호강": 10919,
      "후에도": 10920,
      "영화감독": 10921,
      "영화자체가": 10922,
      "재밌기만": 10923,
      "생각했다": 10924,
      "지루하네": 10925,
      "이거는": 10926,
      "마지막으로": 10927,
      "처음이네요": 10928,
      "모르나": 10929,
      "모르겟다": 10930,
      "주는게": 10931,
      "10점도": 10932,
      "그런영화": 10933,
      "보기에도": 10934,
      "마음은": 10935,
      "마음의": 10936,
      "마음속에": 10937,
      "수준이하": 10938,
      ".............": 10939,
      "만들어야": 10940,
      "나온거": 10941,
      "수가없다": 10942,
      "표현했다": 10943,
      "영화로써": 10944,
      "아쉽고": 10945,
      "잔잔하지만": 10946,
      "조금씩": 10947,
      "느껴짐": 10948,
      "안되요": 10949,
      "시작은": 10950,
      "관객의": 10951,
      "허접하다": 10952,
      "주제도": 10953,
      "다음에": 10954,
      "굉장한": 10955,
      "구성은": 10956,
      "성우를": 10957,
[...]
